<pad>	0
</s>	0
<s>	0
<unk>	0
en	-0
er	-1
in	-2
▁a	-3
▁t	-4
▁d	-5
ch	-6
es	-7
on	-8
▁th	-9
un	-10
it	-11
is	-12
▁s	-13
▁w	-14
at	-15
ie	-16
or	-17
an	-18
▁the	-19
re	-20
▁b	-21
al	-22
▁o	-23
ar	-24
▁in	-25
▁f	-26
ich	-27
▁m	-28
te	-29
ion	-30
▁e	-31
ur	-32
▁an	-33
as	-34
le	-35
▁p	-36
▁c	-37
▁un	-38
▁h	-39
us	-40
▁S	-41
ge	-42
ent	-43
ro	-44
▁of	-45
▁n	-46
▁v	-47
ing	-48
ung	-49
▁to	-50
▁and	-51
▁A	-52
ll	-53
ed	-54
▁die	-55
om	-56
▁der	-57
▁und	-58
▁E	-59
▁I	-60
ig	-61
st	-62
ic	-63
▁be	-64
▁M	-65
▁is	-66
▁D	-67
▁T	-68
▁ein	-69
▁B	-70
▁P	-71
▁z	-72
ir	-73
im	-74
▁g	-75
el	-76
ut	-77
ra	-78
ter	-79
em	-80
il	-81
▁W	-82
ten	-83
ol	-84
ation	-85
eit	-86
der	-87
et	-88
▁F	-89
▁l	-90
am	-91
den	-92
▁re	-93
▁G	-94
hr	-95
ies	-96
um	-97
op	-98
▁K	-99
ct	-100
▁H	-101
sch	-102
▁k	-103
ul	-104
▁R	-105
uf	-106
ber	-107
▁C	-108
iv	-109
lich	-110
de	-111
▁V	-112
▁for	-113
ab	-114
ot	-115
ür	-116
isch	-117
ier	-118
icht	-119
gen	-120
▁Th	-121
▁das	-122
▁on	-123
▁zu	-124
▁L	-125
ere	-126
▁den	-127
ly	-128
est	-129
ess	-130
▁that	-131
os	-132
and	-133
id	-134
▁U	-135
ce	-136
omm	-137
ein	-138
ers	-139
▁al	-140
ow	-141
▁pro	-142
ach	-143
▁von	-144
▁wh	-145
▁r	-146
▁ge	-147
ort	-148
▁im	-149
uch	-150
▁st	-151
▁y	-152
ith	-153
▁In	-154
▁wir	-155
kt	-156
▁N	-157
if	-158
▁con	-159
▁ist	-160
▁ver	-161
▁er	-162
ver	-163
▁auf	-164
▁with	-165
▁we	-166
▁für	-167
urop	-168
ay	-169
ill	-170
▁des	-171
▁it	-172
▁mit	-173
ve	-174
▁are	-175
ad	-176
ts	-177
▁Z	-178
ind	-179
▁1	-180
ck	-181
▁as	-182
▁so	-183
▁The	-184
▁de	-185
▁ne	-186
▁yo	-187
iss	-188
▁dies	-189
tr	-190
end	-191
▁(	-192
af	-193
▁Europ	-194
pp	-195
ate	-196
ik	-197
ment	-198
th	-199
▁se	-200
qu	-201
▁2	-202
ungen	-203
la	-204
▁Un	-205
ischen	-206
▁St	-207
nen	-208
men	-209
ib	-210
▁als	-211
▁Ver	-212
▁eine	-213
ak	-214
▁ex	-215
ne	-216
for	-217
▁dem	-218
ah	-219
▁this	-220
ity	-221
▁O	-222
▁ha	-223
ien	-224
ant	-225
ive	-226
▁An	-227
▁Sie	-228
ial	-229
ist	-230
▁j	-231
▁nicht	-232
▁J	-233
art	-234
▁or	-235
▁wer	-236
und	-237
pe	-238
ug	-239
▁co	-240
▁not	-241
über	-242
ann	-243
ste	-244
▁sich	-245
00	-246
▁le	-247
än	-248
▁all	-249
ub	-250
▁werden	-251
ff	-252
▁-	-253
tel	-254
▁Re	-255
we	-256
▁by	-257
▁have	-258
▁dass	-259
rom	-260
igen	-261
ag	-262
▁at	-263
ust	-264
igh	-265
▁es	-266
ass	-267
▁aus	-268
ens	-269
ain	-270
▁Die	-271
all	-272
uld	-273
▁you	-274
▁sh	-275
▁will	-276
sp	-277
up	-278
▁ab	-279
▁com	-280
od	-281
iel	-282
▁uns	-283
ern	-284
▁über	-285
aus	-286
▁i	-287
ure	-288
▁me	-289
ze	-290
age	-291
ions	-292
▁Pr	-293
ted	-294
ommiss	-295
▁was	-296
▁which	-297
▁auch	-298
▁Sch	-299
ben	-300
ran	-301
lie	-302
ahr	-303
▁from	-304
hen	-305
och	-306
ungs	-307
▁Europe	-308
du	-309
hal	-310
▁um	-311
ard	-312
▁Be	-313
ould	-314
▁sch	-315
▁sind	-316
▁We	-317
tern	-318
▁Pro	-319
▁us	-320
▁ch	-321
ident	-322
ommission	-323
▁pr	-324
og	-325
▁ent	-326
uss	-327
▁wird	-328
fer	-329
▁vor	-330
▁has	-331
▁En	-332
esch	-333
ue	-334
▁hab	-335
schaf	-336
mer	-337
ip	-338
iz	-339
ft	-340
port	-341
ön	-342
ine	-343
ang	-344
▁wor	-345
ss	-346
gr	-347
▁en	-348
ud	-349
▁res	-350
llen	-351
oc	-352
ische	-353
▁Er	-354
ous	-355
ick	-356
ok	-357
▁wie	-358
ast	-359
enn	-360
▁da	-361
▁Par	-362
ät	-363
our	-364
▁can	-365
urch	-366
▁man	-367
ise	-368
▁he	-369
me	-370
able	-371
etz	-372
ige	-373
▁am	-374
form	-375
▁hat	-376
keit	-377
err	-378
ire	-379
▁sein	-380
ap	-381
▁ich	-382
▁Ar	-383
ost	-384
pr	-385
ore	-386
ert	-387
▁oder	-388
▁our	-389
otel	-390
▁Aus	-391
ia	-392
ament	-393
be	-394
cc	-395
erv	-396
▁comp	-397
▁zur	-398
ult	-399
▁also	-400
beit	-401
ations	-402
▁haben	-403
▁European	-404
▁sie	-405
ational	-406
▁Mit	-407
heit	-408
ical	-409
ction	-410
ition	-411
▁ad	-412
▁"	-413
ese	-414
lichen	-415
lo	-416
ish	-417
ice	-418
ated	-419
he	-420
out	-421
are	-422
▁Ein	-423
dern	-424
▁kön	-425
▁bei	-426
▁do	-427
▁einer	-428
ome	-429
olit	-430
rit	-431
se	-432
ru	-433
tz	-434
aten	-435
hl	-436
▁Wir	-437
ther	-438
▁200	-439
ark	-440
▁Ge	-441
ieren	-442
fü	-443
pt	-444
ord	-445
▁unter	-446
ect	-447
▁.	-448
ün	-449
▁nach	-450
her	-451
schaft	-452
▁einen	-453
▁qu	-454
ht	-455
är	-456
ac	-457
tet	-458
iert	-459
ign	-460
elt	-461
▁Parl	-462
ms	-463
▁part	-464
▁your	-465
▁its	-466
ight	-467
vel	-468
ates	-469
▁Das	-470
▁Union	-471
oun	-472
▁te	-473
ake	-474
ear	-475
tra	-476
▁gro	-477
ank	-478
▁reg	-479
▁durch	-480
ite	-481
au	-482
▁Fra	-483
ian	-484
ger	-485
yste	-486
▁su	-487
▁Ber	-488
fen	-489
▁sp	-490
▁go	-491
▁It	-492
▁wur	-493
▁ro	-494
ary	-495
▁können	-496
▁but	-497
▁ag	-498
ide	-499
▁Ich	-500
oll	-501
cial	-502
ember	-503
▁Vor	-504
▁Ab	-505
liche	-506
▁there	-507
gt	-508
con	-509
per	-510
äs	-511
▁Mr	-512
hre	-513
▁ste	-514
▁–	-515
▁app	-516
anz	-517
▁3	-518
▁EU	-519
ose	-520
▁dar	-521
▁dis	-522
ör	-523
▁war	-524
cht	-525
▁Commission	-526
▁tra	-527
chen	-528
ual	-529
▁Herr	-530
▁19	-531
▁would	-532
ime	-533
▁more	-534
eren	-535
cl	-536
▁spe	-537
tw	-538
▁mö	-539
ance	-540
ile	-541
ail	-542
▁their	-543
▁zum	-544
ov	-545
▁einem	-546
ommen	-547
▁been	-548
mp	-549
▁bes	-550
▁gen	-551
▁cont	-552
reat	-553
ute	-554
glich	-555
ase	-556
ong	-557
▁Al	-558
imm	-559
uß	-560
act	-561
chn	-562
ame	-563
chte	-564
▁ar	-565
▁This	-566
▁Europä	-567
▁kann	-568
▁fin	-569
ild	-570
▁Te	-571
utz	-572
ble	-573
ück	-574
gra	-575
▁diese	-576
ack	-577
oss	-578
üss	-579
▁De	-580
▁one	-581
▁nur	-582
▁Le	-583
che	-584
▁Ch	-585
▁Gr	-586
one	-587
▁acc	-588
ont	-589
▁coun	-590
ugh	-591
ents	-592
▁per	-593
▁Unter	-594
▁Sp	-595
sten	-596
▁comm	-597
ges	-598
hn	-599
gan	-600
▁Auf	-601
▁should	-602
ahl	-603
▁alle	-604
▁Hotel	-605
▁pl	-606
▁bet	-607
wer	-608
▁work	-609
▁Der	-610
ike	-611
ution	-612
lic	-613
▁new	-614
ierung	-615
geb	-616
eine	-617
land	-618
▁up	-619
▁cl	-620
▁Jahr	-621
ely	-622
hmen	-623
zu	-624
ob	-625
ree	-626
▁Se	-627
auf	-628
hren	-629
▁For	-630
äsident	-631
▁out	-632
▁dieser	-633
ktion	-634
igkeit	-635
rie	-636
▁,	-637
▁Pres	-638
ld	-639
▁ob	-640
ner	-641
to	-642
▁jed	-643
av	-644
reich	-645
▁Dies	-646
olle	-647
ons	-648
▁countr	-649
pl	-650
▁Es	-651
▁pre	-652
ings	-653
▁very	-654
▁must	-655
▁ind	-656
▁inter	-657
▁noch	-658
bar	-659
▁zw	-660
ähr	-661
▁produ	-662
ke	-663
▁other	-664
▁who	-665
▁Kommission	-666
ities	-667
formation	-668
▁ev	-669
▁ma	-670
▁daß	-671
▁weit	-672
▁they	-673
▁need	-674
▁pe	-675
ink	-676
mit	-677
gram	-678
ces	-679
pro	-680
wo	-681
▁wurde	-682
ors	-683
▁ber	-684
ments	-685
ater	-686
tell	-687
▁no	-688
▁mehr	-689
▁soll	-690
▁intern	-691
schen	-692
▁year	-693
▁only	-694
ange	-695
▁fe	-696
▁str	-697
▁supp	-698
▁President	-699
▁cons	-700
▁like	-701
▁aber	-702
▁bec	-703
ple	-704
olog	-705
ystem	-706
▁about	-707
üssen	-708
▁polit	-709
oin	-710
▁time	-711
▁wenn	-712
▁Präsident	-713
glie	-714
teil	-715
entr	-716
fe	-717
▁5	-718
▁4	-719
pos	-720
erm	-721
ible	-722
..	-723
assen	-724
ious	-725
▁Y	-726
▁any	-727
▁Reg	-728
ced	-729
leich	-730
uen	-731
).	-732
gel	-733
▁sehr	-734
▁ges	-735
▁prov	-736
▁müssen	-737
velop	-738
xt	-739
ität	-740
lin	-741
ally	-742
▁tran	-743
enz	-744
▁eff	-745
▁unser	-746
▁wo	-747
ject	-748
nah	-749
alt	-750
cess	-751
hnen	-752
▁ra	-753
▁sow	-754
ütz	-755
ans	-756
ient	-757
arbeit	-758
▁these	-759
▁Arbeit	-760
onder	-761
iament	-762
▁rec	-763
ammen	-764
rat	-765
▁sol	-766
▁off	-767
▁Parlament	-768
▁serv	-769
▁dire	-770
fahr	-771
▁Mitglie	-772
▁vie	-773
atz	-774
own	-775
io	-776
ibt	-777
ied	-778
▁hin	-779
ular	-780
fore	-781
ility	-782
▁import	-783
led	-784
▁Member	-785
usammen	-786
ative	-787
äl	-788
▁Men	-789
▁tr	-790
▁So	-791
▁diesem	-792
als	-793
ider	-794
ring	-795
stit	-796
irst	-797
ßen	-798
ople	-799
igt	-800
▁gegen	-801
ph	-802
erson	-803
fl	-804
ause	-805
ures	-806
aaten	-807
▁develop	-808
fol	-809
▁Um	-810
halten	-811
▁if	-812
ism	-813
cy	-814
▁ihre	-815
▁such	-816
wend	-817
▁report	-818
ook	-819
▁la	-820
änd	-821
ays	-822
unden	-823
sche	-824
iger	-825
▁act	-826
wn	-827
▁pol	-828
▁gr	-829
etzt	-830
▁bis	-831
iven	-832
▁20	-833
▁Ma	-834
▁Europäischen	-835
ateg	-836
ks	-837
▁sub	-838
dition	-839
▁over	-840
▁Zeit	-841
nehmen	-842
ale	-843
▁rel	-844
▁ins	-845
ific	-846
wor	-847
▁my	-848
itu	-849
▁ihr	-850
▁into	-851
▁Ne	-852
▁people	-853
▁were	-854
kte	-855
▁Parliament	-856
führ	-857
▁well	-858
▁international	-859
cre	-860
iden	-861
str	-862
▁As	-863
ken	-864
erg	-865
ices	-866
▁Ü	-867
▁best	-868
▁gem	-869
▁viel	-870
▁some	-871
conom	-872
...	-873
ement	-874
▁inv	-875
bs	-876
▁möchte	-877
lung	-878
enden	-879
acht	-880
▁what	-881
isten	-882
▁use	-883
ene	-884
fr	-885
▁Mar	-886
▁dif	-887
▁Mitglied	-888
▁mark	-889
cil	-890
arge	-891
▁high	-892
▁hier	-893
icher	-894
▁States	-895
▁Or	-896
▁Im	-897
▁her	-898
▁sa	-899
),	-900
▁eines	-901
▁hotel	-902
ustr	-903
▁Über	-904
uropä	-905
▁than	-906
▁kn	-907
rei	-908
▁bed	-909
very	-910
▁countries	-911
ou	-912
▁Coun	-913
▁loc	-914
ull	-915
ory	-916
▁gew	-917
▁most	-918
▁first	-919
amen	-920
olitik	-921
zeit	-922
▁hel	-923
▁wicht	-924
ention	-925
▁Me	-926
▁incl	-927
▁vom	-928
▁lie	-929
▁dec	-930
▁when	-931
▁his	-932
▁vers	-933
ating	-934
▁under	-935
iet	-936
ace	-937
▁partic	-938
pect	-939
▁them	-940
inn	-941
itte	-942
ages	-943
esent	-944
▁Kon	-945
ards	-946
▁Entw	-947
▁Q	-948
▁polic	-949
▁Menschen	-950
▁dam	-951
▁just	-952
sicht	-953
itz	-954
ett	-955
les	-956
▁now	-957
änder	-958
▁wel	-959
äch	-960
abe	-961
▁He	-962
▁ele	-963
▁Council	-964
▁sowie	-965
▁econom	-966
ats	-967
att	-968
▁support	-969
▁again	-970
ond	-971
▁Bericht	-972
▁europä	-973
▁important	-974
tre	-975
lä	-976
▁Land	-977
▁aut	-978
▁dieses	-979
▁make	-980
▁gu	-981
▁bas	-982
els	-983
▁gibt	-984
ween	-985
halt	-986
ights	-987
▁many	-988
▁pla	-989
kommen	-990
▁how	-991
▁room	-992
kl	-993
ues	-994
stütz	-995
essen	-996
▁Nach	-997
▁ass	-998
▁between	-999
wir	-1000
fin	-1001
▁mo	-1002
ho	-1003
▁fr	-1004
hand	-1005
any	-1006
oth	-1007
halb	-1008
▁requ	-1009
▁6	-1010
fter	-1011
je	-1012
▁propos	-1013
ös	-1014
▁techn	-1015
issen	-1016
▁Comm	-1017
▁zwischen	-1018
ware	-1019
ives	-1020
bst	-1021
▁Bed	-1022
▁poss	-1023
igung	-1024
▁world	-1025
ence	-1026
ließ	-1027
tschaft	-1028
ters	-1029
ural	-1030
dr	-1031
▁bereit	-1032
staaten	-1033
▁Verb	-1034
öglich	-1035
▁because	-1036
▁Entwick	-1037
▁leg	-1038
▁take	-1039
▁kon	-1040
▁fre	-1041
legen	-1042
zie	-1043
▁Pl	-1044
▁market	-1045
▁Fl	-1046
uer	-1047
▁US	-1048
ublic	-1049
▁cre	-1050
ful	-1051
ote	-1052
▁pos	-1053
▁'	-1054
mal	-1055
▁muss	-1056
weit	-1057
blem	-1058
arm	-1059
ever	-1060
off	-1061
cted	-1062
▁Intern	-1063
▁find	-1064
▁Ent	-1065
▁fo	-1066
min	-1067
▁sel	-1068
rough	-1069
oint	-1070
amp	-1071
lear	-1072
ict	-1073
ath	-1074
zial	-1075
▁Str	-1076
hör	-1077
▁unsere	-1078
dit	-1079
▁keine	-1080
▁national	-1081
▁op	-1082
▁All	-1083
dem	-1084
▁good	-1085
omp	-1086
ount	-1087
vern	-1088
▁Ges	-1089
▁„	-1090
▁par	-1091
▁son	-1092
▁min	-1093
▁Ihre	-1094
ality	-1095
▁bie	-1096
▁where	-1097
nis	-1098
▁great	-1099
▁av	-1100
▁Produ	-1101
▁Ihnen	-1102
▁two	-1103
▁hand	-1104
▁Min	-1105
rauch	-1106
uring	-1107
eschä	-1108
▁nat	-1109
urn	-1110
rag	-1111
achen	-1112
▁emp	-1113
▁information	-1114
▁rem	-1115
▁Art	-1116
öff	-1117
▁years	-1118
▁verb	-1119
▁every	-1120
▁einz	-1121
ße	-1122
stand	-1123
▁had	-1124
▁made	-1125
▁Grund	-1126
▁even	-1127
eln	-1128
▁conc	-1129
amil	-1130
hm	-1131
▁anderen	-1132
▁end	-1133
ium	-1134
rol	-1135
▁If	-1136
unkt	-1137
fort	-1138
aut	-1139
▁mein	-1140
schie	-1141
▁Europa	-1142
laub	-1143
▁system	-1144
▁through	-1145
▁way	-1146
▁Fin	-1147
geben	-1148
ischer	-1149
▁product	-1150
▁iss	-1151
cept	-1152
▁get	-1153
▁199	-1154
air	-1155
▁Ä	-1156
chten	-1157
forder	-1158
ession	-1159
▁Zusammen	-1160
gend	-1161
▁those	-1162
ision	-1163
▁see	-1164
lish	-1165
▁weiter	-1166
ower	-1167
ina	-1168
urr	-1169
▁Mitgliedstaaten	-1170
▁sc	-1171
ereich	-1172
ält	-1173
ister	-1174
▁ange	-1175
weise	-1176
gung	-1177
immer	-1178
▁immer	-1179
▁Rat	-1180
stell	-1181
ws	-1182
▁Am	-1183
▁Fr	-1184
ys	-1185
▁policy	-1186
ows	-1187
▁may	-1188
day	-1189
▁Wenn	-1190
▁Seit	-1191
lag	-1192
erein	-1193
ganis	-1194
ußer	-1195
▁order	-1196
▁Ex	-1197
▁7	-1198
▁“	-1199
lick	-1200
▁tak	-1201
ument	-1202
▁direct	-1203
▁disc	-1204
▁..	-1205
hne	-1206
rif	-1207
ital	-1208
ster	-1209
▁10	-1210
▁dann	-1211
spr	-1212
uman	-1213
▁right	-1214
▁ke	-1215
▁beste	-1216
▁ac	-1217
ivers	-1218
▁beg	-1219
▁There	-1220
ituation	-1221
ited	-1222
unity	-1223
alls	-1224
▁Vorsch	-1225
isen	-1226
▁rest	-1227
▁Bes	-1228
▁being	-1229
▁fact	-1230
▁num	-1231
▁8	-1232
bal	-1233
▁Wh	-1234
▁wieder	-1235
gest	-1236
chts	-1237
▁diesen	-1238
eration	-1239
▁cent	-1240
▁appro	-1241
000	-1242
▁belie	-1243
ionen	-1244
▁Welt	-1245
▁differ	-1246
nahmen	-1247
urs	-1248
▁ger	-1249
▁Haus	-1250
▁car	-1251
▁damit	-1252
▁zwe	-1253
▁particular	-1254
nung	-1255
▁fü	-1256
▁wurden	-1257
ior	-1258
com	-1259
vor	-1260
▁On	-1261
▁gesch	-1262
▁trans	-1263
▁includ	-1264
▁own	-1265
itt	-1266
▁ganz	-1267
▁Bereich	-1268
icherheit	-1269
eins	-1270
isse	-1271
aur	-1272
ough	-1273
part	-1274
iness	-1275
▁process	-1276
▁resp	-1277
elle	-1278
▁mon	-1279
adt	-1280
▁Gro	-1281
▁Des	-1282
▁Frau	-1283
sel	-1284
ade	-1285
read	-1286
▁Diese	-1287
▁know	-1288
ry	-1289
zeich	-1290
ändern	-1291
▁Ihr	-1292
innen	-1293
get	-1294
▁At	-1295
atter	-1296
old	-1297
ouse	-1298
▁bus	-1299
▁exp	-1300
trag	-1301
gramm	-1302
▁quest	-1303
▁area	-1304
zen	-1305
▁del	-1306
▁[	-1307
▁main	-1308
stitution	-1309
▁kein	-1310
ler	-1311
▁Hand	-1312
itä	-1313
▁bu	-1314
hin	-1315
▁ph	-1316
schieden	-1317
▁unserer	-1318
ool	-1319
oy	-1320
rechen	-1321
▁real	-1322
alk	-1323
az	-1324
▁agre	-1325
▁help	-1326
▁Con	-1327
round	-1328
▁Zu	-1329
10	-1330
▁sm	-1331
schafts	-1332
▁Geb	-1333
▁deb	-1334
ix	-1335
▁here	-1336
▁stand	-1337
▁habe	-1338
▁seine	-1339
▁You	-1340
▁after	-1341
▁cour	-1342
▁sondern	-1343
▁...	-1344
▁comple	-1345
▁Her	-1346
▁jedoch	-1347
▁Inter	-1348
▁political	-1349
piel	-1350
▁Gem	-1351
eld	-1352
▁incre	-1353
ests	-1354
gesch	-1355
ince	-1356
▁gut	-1357
ruck	-1358
leg	-1359
▁form	-1360
tegr	-1361
▁ide	-1362
eth	-1363
▁9	-1364
ende	-1365
▁wür	-1366
▁public	-1367
▁place	-1368
▁Information	-1369
▁Europäische	-1370
ktiv	-1371
▁etw	-1372
mittel	-1373
ently	-1374
▁concern	-1375
▁possible	-1376
▁sim	-1377
istr	-1378
▁prote	-1379
▁Bar	-1380
▁ausge	-1381
▁same	-1382
ved	-1383
▁could	-1384
ax	-1385
▁Br	-1386
▁Bür	-1387
ierte	-1388
▁Ind	-1389
bens	-1390
▁neue	-1391
ines	-1392
▁clear	-1393
öglichkeit	-1394
iron	-1395
▁ser	-1396
ata	-1397
▁dr	-1398
▁heute	-1399
schließ	-1400
▁bef	-1401
fach	-1402
tens	-1403
▁want	-1404
▁human	-1405
▁economic	-1406
line	-1407
eral	-1408
▁contin	-1409
▁Ste	-1410
▁curr	-1411
▁Fre	-1412
lagen	-1413
▁offer	-1414
▁number	-1415
isk	-1416
▁wen	-1417
▁Unternehmen	-1418
uro	-1419
▁does	-1420
▁Teil	-1421
ven	-1422
▁say	-1423
▁opp	-1424
▁gleich	-1425
nder	-1426
▁development	-1427
osten	-1428
▁effect	-1429
▁then	-1430
▁est	-1431
▁person	-1432
ertain	-1433
▁within	-1434
ants	-1435
tellt	-1436
lobal	-1437
ßnahmen	-1438
trä	-1439
use	-1440
▁bereits	-1441
▁Fran	-1442
iti	-1443
raft	-1444
▁Kolle	-1445
ics	-1446
▁avail	-1447
▁much	-1448
▁exam	-1449
▁Pre	-1450
▁Schl	-1451
ähl	-1452
▁selbst	-1453
aup	-1454
▁15	-1455
▁Änder	-1456
yp	-1457
alen	-1458
▁fest	-1459
▁transp	-1460
▁rights	-1461
▁against	-1462
br	-1463
▁ohne	-1464
▁lang	-1465
hip	-1466
▁val	-1467
▁both	-1468
▁used	-1469
▁mich	-1470
▁fund	-1471
▁Entwicklung	-1472
licher	-1473
erk	-1474
▁prof	-1475
▁How	-1476
ander	-1477
▁Germ	-1478
lage	-1479
▁sollte	-1480
▁vis	-1481
▁ihrer	-1482
ma	-1483
bes	-1484
▁Bet	-1485
ock	-1486
▁wichtig	-1487
▁sur	-1488
utions	-1489
▁Is	-1490
icult	-1491
▁therefore	-1492
▁Man	-1493
▁sign	-1494
ierten	-1495
erung	-1496
stru	-1497
fern	-1498
▁Jahren	-1499
▁hist	-1500
▁level	-1501
▁region	-1502
▁neuen	-1503
▁Wie	-1504
loy	-1505
▁equ	-1506
ustom	-1507
▁med	-1508
ftware	-1509
setz	-1510
▁var	-1511
viron	-1512
ife	-1513
▁Vers	-1514
▁bring	-1515
▁cr	-1516
▁Hin	-1517
ulation	-1518
ivid	-1519
▁europäischen	-1520
äre	-1521
que	-1522
ds	-1523
eng	-1524
▁fun	-1525
▁pra	-1526
▁andere	-1527
ständ	-1528
▁play	-1529
▁country	-1530
satz	-1531
ep	-1532
▁bo	-1533
▁full	-1534
öß	-1535
aff	-1536
ux	-1537
reichen	-1538
öffent	-1539
▁Richt	-1540
▁provid	-1541
▁eigen	-1542
▁finan	-1543
▁zwei	-1544
ically	-1545
wert	-1546
agement	-1547
▁letz	-1548
▁bre	-1549
kun	-1550
fahren	-1551
urg	-1552
rä	-1553
▁conf	-1554
its	-1555
net	-1556
wick	-1557
▁social	-1558
way	-1559
▁Kl	-1560
▁last	-1561
▁view	-1562
▁think	-1563
▁still	-1564
▁exper	-1565
▁group	-1566
äng	-1567
ichte	-1568
mb	-1569
under	-1570
vironment	-1571
ets	-1572
trib	-1573
▁sollten	-1574
▁without	-1575
▁point	-1576
▁18	-1577
▁denn	-1578
work	-1579
▁long	-1580
immt	-1581
▁adv	-1582
over	-1583
gar	-1584
par	-1585
ittee	-1586
entral	-1587
cur	-1588
eut	-1589
▁finden	-1590
▁priv	-1591
▁ens	-1592
▁Mon	-1593
▁Sicherheit	-1594
iver	-1595
▁denen	-1596
▁govern	-1597
▁12	-1598
▁meas	-1599
esse	-1600
▁oper	-1601
▁Fe	-1602
▁Frage	-1603
▁different	-1604
▁Gen	-1605
▁opt	-1606
▁consider	-1607
▁möglich	-1608
ator	-1609
kehr	-1610
▁access	-1611
fra	-1612
▁mod	-1613
ffen	-1614
▁services	-1615
ohl	-1616
lichkeit	-1617
▁gemeins	-1618
ists	-1619
ährend	-1620
ize	-1621
nahme	-1622
esen	-1623
wort	-1624
▁ers	-1625
▁verschieden	-1626
▁Part	-1627
ationen	-1628
▁down	-1629
ondere	-1630
▁cap	-1631
▁free	-1632
ness	-1633
▁available	-1634
zeug	-1635
▁att	-1636
▁spec	-1637
war	-1638
▁gel	-1639
▁unterstütz	-1640
res	-1641
▁require	-1642
▁Person	-1643
▁prin	-1644
▁back	-1645
richt	-1646
hor	-1647
ollow	-1648
▁bietet	-1649
ope	-1650
aking	-1651
hol	-1652
uture	-1653
▁Bürger	-1654
akt	-1655
▁able	-1656
▁industr	-1657
zahl	-1658
ritt	-1659
▁kle	-1660
ude	-1661
▁Daten	-1662
orte	-1663
▁Tra	-1664
ibility	-1665
ready	-1666
▁Kont	-1667
ability	-1668
urther	-1669
▁business	-1670
▁dazu	-1671
alth	-1672
pf	-1673
vers	-1674
atur	-1675
▁special	-1676
ience	-1677
▁But	-1678
ised	-1679
▁viele	-1680
ting	-1681
▁liegt	-1682
man	-1683
iß	-1684
ystems	-1685
ins	-1686
afür	-1687
ispiel	-1688
▁small	-1689
▁look	-1690
▁ben	-1691
▁könn	-1692
ppen	-1693
ders	-1694
▁before	-1695
▁custom	-1696
▁machen	-1697
▁ze	-1698
▁aller	-1699
▁Dem	-1700
▁Aut	-1701
yn	-1702
▁allen	-1703
▁already	-1704
▁future	-1705
▁gest	-1706
ward	-1707
ienst	-1708
ER	-1709
▁Kommiss	-1710
loss	-1711
aben	-1712
▁pers	-1713
ahre	-1714
une	-1715
▁air	-1716
▁cor	-1717
gem	-1718
▁Mittel	-1719
tem	-1720
▁bek	-1721
▁believe	-1722
▁hal	-1723
ktur	-1724
ahmen	-1725
▁weil	-1726
ased	-1727
▁That	-1728
ilt	-1729
ctions	-1730
▁Stand	-1731
▁seiner	-1732
ctor	-1733
▁Finanz	-1734
▁som	-1735
press	-1736
▁today	-1737
▁course	-1738
▁open	-1739
cond	-1740
kten	-1741
▁darauf	-1742
▁too	-1743
▁größ	-1744
jor	-1745
zug	-1746
äh	-1747
ismus	-1748
▁jetzt	-1749
▁project	-1750
agen	-1751
ves	-1752
annt	-1753
▁inst	-1754
▁set	-1755
▁Möglichkeit	-1756
▁design	-1757
▁Ziel	-1758
esell	-1759
▁cann	-1760
aher	-1761
welt	-1762
gramme	-1763
ante	-1764
▁Ro	-1765
▁To	-1766
▁products	-1767
▁eing	-1768
▁Them	-1769
▁service	-1770
äß	-1771
ving	-1772
▁environment	-1773
▁et	-1774
come	-1775
ron	-1776
▁fl	-1777
omen	-1778
▁cannot	-1779
hält	-1780
▁Lage	-1781
▁fac	-1782
ica	-1783
▁Russ	-1784
▁respons	-1785
itiz	-1786
imin	-1787
zus	-1788
nisse	-1789
▁geht	-1790
curity	-1791
▁einfach	-1792
▁And	-1793
other	-1794
öl	-1795
lease	-1796
▁data	-1797
▁Rahmen	-1798
cr	-1799
▁schon	-1800
▁seit	-1801
▁redu	-1802
mar	-1803
▁prev	-1804
▁certain	-1805
tend	-1806
▁Med	-1807
ately	-1808
▁Maßnahmen	-1809
olution	-1810
▁geb	-1811
▁bro	-1812
▁Informationen	-1813
ren	-1814
aterial	-1815
▁mir	-1816
▁Energ	-1817
▁eas	-1818
▁individ	-1819
▁offers	-1820
▁bin	-1821
los	-1822
chie	-1823
okrat	-1824
▁kl	-1825
▁fra	-1826
▁neg	-1827
▁Mein	-1828
▁follow	-1829
▁case	-1830
iving	-1831
▁dafür	-1832
▁Verein	-1833
abei	-1834
▁einige	-1835
operation	-1836
▁int	-1837
klär	-1838
]]	-1839
▁Amer	-1840
ätz	-1841
▁impro	-1842
affen	-1843
▁put	-1844
ars	-1845
ilit	-1846
ccess	-1847
olid	-1848
▁question	-1849
▁Internet	-1850
ential	-1851
▁ter	-1852
▁global	-1853
▁financial	-1854
folg	-1855
ually	-1856
co	-1857
▁voll	-1858
▁Tran	-1859
▁regard	-1860
▁invest	-1861
red	-1862
▁change	-1863
tain	-1864
▁Rechts	-1865
ervice	-1866
▁Commissioner	-1867
▁&	-1868
▁Gemein	-1869
▁je	-1870
orn	-1871
▁Pol	-1872
allen	-1873
raph	-1874
▁integr	-1875
ified	-1876
imes	-1877
eich	-1878
▁city	-1879
isierung	-1880
▁0	-1881
iber	-1882
▁reas	-1883
ichten	-1884
▁art	-1885
üh	-1886
▁Stadt	-1887
▁Zimmer	-1888
grund	-1889
▁zurück	-1890
▁rev	-1891
▁far	-1892
▁posit	-1893
▁during	-1894
▁ihren	-1895
llt	-1896
▁imple	-1897
utes	-1898
▁problem	-1899
▁Herrn	-1900
▁deut	-1901
▁repr	-1902
ünd	-1903
▁Jahre	-1904
anden	-1905
▁imp	-1906
▁%	-1907
▁citiz	-1908
ahn	-1909
▁large	-1910
ucht	-1911
▁prom	-1912
▁Uns	-1913
▁activ	-1914
cing	-1915
lex	-1916
▁nun	-1917
▁energ	-1918
▁day	-1919
▁Ö	-1920
▁Aussch	-1921
▁2009	-1922
uchen	-1923
inen	-1924
kunft	-1925
▁example	-1926
▁fol	-1927
▁Wor	-1928
amm	-1929
iele	-1930
▁achie	-1931
▁said	-1932
nov	-1933
illion	-1934
▁allem	-1935
ichter	-1936
aum	-1937
ove	-1938
scheid	-1939
▁cost	-1940
▁issue	-1941
▁Bei	-1942
▁means	-1943
▁saf	-1944
ily	-1945
bsite	-1946
ather	-1947
reib	-1948
lossen	-1949
▁stat	-1950
▁major	-1951
▁member	-1952
▁zusammen	-1953
▁[[	-1954
▁Für	-1955
▁Sh	-1956
EN	-1957
▁quality	-1958
gress	-1959
ways	-1960
▁modern	-1961
äm	-1962
so	-1963
▁proposal	-1964
▁ask	-1965
▁gef	-1966
▁meine	-1967
▁el	-1968
▁strateg	-1969
isl	-1970
▁Eine	-1971
▁famil	-1972
aupt	-1973
▁applic	-1974
▁besch	-1975
▁rooms	-1976
▁meet	-1977
▁verfü	-1978
punkt	-1979
besondere	-1980
▁entsp	-1981
heiten	-1982
20	-1983
▁since	-1984
halts	-1985
unter	-1986
▁besonder	-1987
amer	-1988
▁sicher	-1989
▁würde	-1990
ized	-1991
iend	-1992
ites	-1993
▁debate	-1994
▁However	-1995
▁Go	-1996
▁present	-1997
udget	-1998
▁technolog	-1999
▁Kin	-2000
aat	-2001
führt	-2002
ether	-2003
▁wollen	-2004
▁unseren	-2005
antwort	-2006
▁necess	-2007
▁With	-2008
▁situation	-2009
▁Our	-2010
200	-2011
▁Gew	-2012
pre	-2013
ash	-2014
▁eng	-2015
▁einge	-2016
ktionen	-2017
▁Pal	-2018
ilities	-2019
▁Bo	-2020
▁child	-2021
org	-2022
fts	-2023
leist	-2024
ule	-2025
▁Ad	-2026
angen	-2027
oren	-2028
blems	-2029
▁Spe	-2030
▁each	-2031
etzen	-2032
▁Kommissar	-2033
▁power	-2034
haf	-2035
eschäft	-2036
omat	-2037
▁che	-2038
▁common	-2039
▁pass	-2040
▁Best	-2041
▁Und	-2042
▁Politik	-2043
▁amend	-2044
licht	-2045
▁Gesch	-2046
▁gar	-2047
▁including	-2048
▁Wer	-2049
▁adop	-2050
ache	-2051
▁Ph	-2052
▁compet	-2053
▁Eng	-2054
fass	-2055
▁ref	-2056
▁Ger	-2057
▁Arbeits	-2058
vention	-2059
reit	-2060
▁während	-2061
immung	-2062
ell	-2063
▁stehen	-2064
▁citizens	-2065
tellen	-2066
▁colle	-2067
▁etwas	-2068
▁Euro	-2069
▁30	-2070
▁stay	-2071
aurant	-2072
▁China	-2073
ains	-2074
opp	-2075
bed	-2076
cip	-2077
gangen	-2078
genommen	-2079
▁Parlaments	-2080
▁three	-2081
▁next	-2082
▁found	-2083
▁allow	-2084
▁Res	-2085
gew	-2086
oten	-2087
▁Form	-2088
tt	-2089
ird	-2090
▁Committee	-2091
ining	-2092
ipp	-2093
▁Ur	-2094
orth	-2095
ablish	-2096
▁Bild	-2097
▁stud	-2098
▁sagen	-2099
▁doch	-2100
▁areas	-2101
▁author	-2102
▁Mill	-2103
uge	-2104
iff	-2105
▁few	-2106
▁Länder	-2107
▁br	-2108
zept	-2109
▁grow	-2110
▁object	-2111
▁cult	-2112
▁Vorschlag	-2113
▁Deut	-2114
▁rece	-2115
ugen	-2116
▁measures	-2117
ands	-2118
▁respect	-2119
asch	-2120
zw	-2121
▁give	-2122
▁erm	-2123
▁result	-2124
ürlich	-2125
▁energy	-2126
▁komm	-2127
ode	-2128
1.	-2129
▁sozial	-2130
▁democ	-2131
anken	-2132
▁ensure	-2133
schaften	-2134
▁provide	-2135
▁organis	-2136
gleich	-2137
▁further	-2138
▁histor	-2139
▁success	-2140
▁discuss	-2141
▁pres	-2142
rache	-2143
ught	-2144
ordnung	-2145
▁tun	-2146
ination	-2147
▁wissen	-2148
▁thank	-2149
▁kom	-2150
▁Unterstütz	-2151
▁Durch	-2152
falls	-2153
▁erst	-2154
linie	-2155
▁erhalten	-2156
▁build	-2157
▁mus	-2158
unde	-2159
▁cal	-2160
▁fil	-2161
▁agreement	-2162
▁/	-2163
▁dra	-2164
▁addition	-2165
▁taken	-2166
▁Lös	-2167
▁control	-2168
▁insbesondere	-2169
schl	-2170
▁waren	-2171
stellung	-2172
ziel	-2173
lungs	-2174
iate	-2175
▁einmal	-2176
indet	-2177
▁öffent	-2178
▁Verfü	-2179
In	-2180
ek	-2181
▁Problem	-2182
gang	-2183
▁Rest	-2184
▁pay	-2185
ases	-2186
agt	-2187
▁Qu	-2188
▁Fall	-2189
▁det	-2190
chnolog	-2191
▁Qual	-2192
▁außer	-2193
por	-2194
▁employ	-2195
▁kommen	-2196
itor	-2197
▁Kunden	-2198
cken	-2199
itäten	-2200
▁Änderungs	-2201
▁Zug	-2202
ilfe	-2203
igten	-2204
▁pop	-2205
▁abs	-2206
▁position	-2207
legt	-2208
▁read	-2209
gre	-2210
igin	-2211
▁establish	-2212
▁beim	-2213
▁Bl	-2214
uff	-2215
▁ho	-2216
ums	-2217
▁vo	-2218
pend	-2219
▁Markt	-2220
▁sk	-2221
▁schw	-2222
▁link	-2223
ling	-2224
▁du	-2225
▁come	-2226
▁opport	-2227
ditions	-2228
▁inde	-2229
▁Ital	-2230
arn	-2231
jekt	-2232
▁verw	-2233
▁ersten	-2234
ules	-2235
bo	-2236
ohn	-2237
▁Mus	-2238
arte	-2239
▁law	-2240
rop	-2241
▁Unterstützung	-2242
▁problems	-2243
aren	-2244
▁lassen	-2245
ross	-2246
▁Schw	-2247
▁did	-2248
uten	-2249
▁company	-2250
utzen	-2251
▁key	-2252
tschafts	-2253
arten	-2254
ements	-2255
igkeiten	-2256
esser	-2257
▁groß	-2258
politik	-2259
fre	-2260
▁Zusammenarbeit	-2261
▁begr	-2262
▁25	-2263
▁Spiel	-2264
▁drei	-2265
▁ä	-2266
ises	-2267
fang	-2268
umen	-2269
▁terr	-2270
▁necessary	-2271
▁14	-2272
▁X	-2273
med	-2274
▁entwick	-2275
bau	-2276
▁security	-2277
ichts	-2278
▁geben	-2279
▁wirtschaft	-2280
glichen	-2281
▁shall	-2282
▁lead	-2283
▁health	-2284
▁verl	-2285
lemen	-2286
elf	-2287
▁given	-2288
▁why	-2289
▁princip	-2290
▁em	-2291
▁ret	-2292
▁budget	-2293
▁Cl	-2294
unic	-2295
▁legisl	-2296
▁however	-2297
ising	-2298
▁Proble	-2299
▁pract	-2300
fte	-2301
orgen	-2302
urz	-2303
fung	-2304
▁Mad	-2305
▁wirk	-2306
lungen	-2307
▁hope	-2308
▁besteht	-2309
ively	-2310
▁Group	-2311
esellschaft	-2312
▁Tr	-2313
▁while	-2314
ott	-2315
joy	-2316
▁invol	-2317
bewer	-2318
▁Umwelt	-2319
nell	-2320
örder	-2321
▁Stra	-2322
▁char	-2323
ared	-2324
asse	-2325
iety	-2326
ctive	-2327
▁bl	-2328
▁located	-2329
burg	-2330
gether	-2331
▁second	-2332
iter	-2333
▁16	-2334
▁La	-2335
spro	-2336
▁Ländern	-2337
▁Recht	-2338
▁start	-2339
▁cooperation	-2340
AT	-2341
wards	-2342
▁führen	-2343
▁gra	-2344
ave	-2345
AN	-2346
▁Deb	-2347
isation	-2348
▁tradition	-2349
orm	-2350
▁wish	-2351
schied	-2352
▁ir	-2353
führung	-2354
kon	-2355
▁needs	-2356
▁Ob	-2357
▁steht	-2358
▁ander	-2359
▁Dienst	-2360
ury	-2361
▁life	-2362
▁always	-2363
von	-2364
▁Geschä	-2365
▁Tag	-2366
altung	-2367
▁seinen	-2368
▁They	-2369
▁Sw	-2370
▁complete	-2371
▁protection	-2372
ald	-2373
ches	-2374
▁sehen	-2375
▁implement	-2376
▁Namen	-2377
▁Da	-2378
▁Vol	-2379
▁Ko	-2380
▁refer	-2381
▁Fragen	-2382
wendung	-2383
öt	-2384
▁System	-2385
▁akt	-2386
▁vote	-2387
▁beh	-2388
▁wäre	-2389
ried	-2390
▁17	-2391
▁writ	-2392
▁statt	-2393
text	-2394
zieh	-2395
lect	-2396
häng	-2397
▁inform	-2398
▁Red	-2399
ppe	-2400
schein	-2401
▁United	-2402
▁better	-2403
earch	-2404
▁interest	-2405
▁comb	-2406
ikan	-2407
▁men	-2408
▁Port	-2409
▁diff	-2410
▁dabei	-2411
▁Dar	-2412
ty	-2413
▁sens	-2414
ätze	-2415
ogen	-2416
▁Bel	-2417
ique	-2418
IN	-2419
dress	-2420
▁mult	-2421
cell	-2422
äd	-2423
▁tre	-2424
▁hö	-2425
gaben	-2426
stellen	-2427
zess	-2428
▁Regierung	-2429
▁Besch	-2430
ettbewer	-2431
▁letzten	-2432
kre	-2433
ivil	-2434
▁Lebens	-2435
▁2010	-2436
▁2008	-2437
▁Kr	-2438
▁Beit	-2439
▁House	-2440
▁Energie	-2441
ichterst	-2442
▁USA	-2443
▁gehör	-2444
by	-2445
▁glaub	-2446
tion	-2447
alle	-2448
▁net	-2449
▁action	-2450
▁account	-2451
arch	-2452
ca	-2453
uft	-2454
▁Kollegen	-2455
ES	-2456
▁cho	-2457
▁ble	-2458
▁Not	-2459
▁using	-2460
ämp	-2461
iation	-2462
bereich	-2463
rodu	-2464
zü	-2465
▁Kom	-2466
ialog	-2467
iste	-2468
enten	-2469
ierungs	-2470
▁consum	-2471
undheit	-2472
sequ	-2473
▁worden	-2474
▁fav	-2475
▁fiel	-2476
obil	-2477
less	-2478
▁Bedeut	-2479
abil	-2480
eite	-2481
rän	-2482
cher	-2483
▁reach	-2484
▁legal	-2485
▁around	-2486
▁Was	-2487
gehen	-2488
▁defin	-2489
iod	-2490
▁Aber	-2491
▁mov	-2492
▁based	-2493
▁Sk	-2494
ölk	-2495
blick	-2496
▁sing	-2497
▁großen	-2498
▁muß	-2499
ingungen	-2500
rechte	-2501
▁große	-2502
iges	-2503
▁What	-2504
▁13	-2505
▁conne	-2506
▁Verfügung	-2507
asser	-2508
▁Ser	-2509
▁Entscheid	-2510
gabe	-2511
clus	-2512
▁current	-2513
▁transport	-2514
gestellt	-2515
St	-2516
▁short	-2517
▁add	-2518
▁Community	-2519
▁deren	-2520
▁When	-2521
ged	-2522
▁Bedeutung	-2523
▁Ergeb	-2524
pecial	-2525
▁become	-2526
markt	-2527
▁inner	-2528
▁welche	-2529
▁met	-2530
▁working	-2531
▁stru	-2532
▁rep	-2533
▁less	-2534
▁Hier	-2535
genden	-2536
ify	-2537
▁Seite	-2538
▁Region	-2539
▁Gu	-2540
▁Rom	-2541
ervor	-2542
▁production	-2543
▁50	-2544
▁terms	-2545
▁These	-2546
▁extre	-2547
▁Famil	-2548
lev	-2549
▁def	-2550
▁centre	-2551
racht	-2552
▁rapp	-2553
offe	-2554
▁near	-2555
▁whether	-2556
▁sl	-2557
▁Auch	-2558
eder	-2559
▁Mrs	-2560
▁bel	-2561
▁non	-2562
▁difficult	-2563
▁particularly	-2564
uments	-2565
isher	-2566
▁another	-2567
▁individual	-2568
▁International	-2569
▁together	-2570
▁crit	-2571
▁Fol	-2572
kauf	-2573
load	-2574
vest	-2575
▁visit	-2576
bild	-2577
▁Als	-2578
uter	-2579
▁lim	-2580
▁state	-2581
ünst	-2582
▁trade	-2583
ferenz	-2584
of	-2585
▁bene	-2586
anies	-2587
immen	-2588
▁24	-2589
▁dist	-2590
▁clos	-2591
▁1.	-2592
▁zahl	-2593
astr	-2594
▁Kinder	-2595
▁Bus	-2596
druck	-2597
▁care	-2598
osition	-2599
▁water	-2600
hof	-2601
▁100	-2602
▁Beispiel	-2603
▁ear	-2604
▁Schutz	-2605
igent	-2606
ustrie	-2607
▁Tur	-2608
▁research	-2609
▁Regel	-2610
▁children	-2611
▁bieten	-2612
▁Air	-2613
pecially	-2614
iar	-2615
▁beach	-2616
▁rapporte	-2617
room	-2618
▁exist	-2619
▁contrib	-2620
▁Mal	-2621
▁jeder	-2622
▁Ben	-2623
ners	-2624
▁notwend	-2625
▁Wirtschafts	-2626
bene	-2627
▁davon	-2628
akes	-2629
▁him	-2630
▁issues	-2631
▁Zahl	-2632
▁whole	-2633
▁2007	-2634
▁local	-2635
▁Berichterst	-2636
tellung	-2637
▁hervor	-2638
entrum	-2639
▁tour	-2640
▁Thema	-2641
ckt	-2642
▁entfern	-2643
bt	-2644
hö	-2645
▁richt	-2646
▁Service	-2647
üt	-2648
ika	-2649
▁könnte	-2650
▁Vertrag	-2651
▁reason	-2652
xim	-2653
▁friend	-2654
kungen	-2655
▁erforder	-2656
ots	-2657
träge	-2658
▁UN	-2659
leit	-2660
▁km	-2661
▁Stud	-2662
▁ann	-2663
atte	-2664
▁enjoy	-2665
orts	-2666
▁brauch	-2667
▁schnell	-2668
▁darüber	-2669
▁gegenüber	-2670
▁stellen	-2671
▁bew	-2672
▁daher	-2673
▁address	-2674
▁conditions	-2675
iew	-2676
▁eben	-2677
▁show	-2678
▁tax	-2679
arante	-2680
▁Gä	-2681
ording	-2682
▁Probleme	-2683
ames	-2684
▁book	-2685
wirtschaft	-2686
▁eigenen	-2687
rieden	-2688
▁specific	-2689
▁call	-2690
▁Viel	-2691
▁systems	-2692
▁alles	-2693
▁run	-2694
▁San	-2695
ufen	-2696
▁aff	-2697
ategor	-2698
▁Weise	-2699
▁role	-2700
▁Fahr	-2701
ennt	-2702
ultur	-2703
▁experience	-2704
ails	-2705
fäh	-2706
▁Frauen	-2707
▁companies	-2708
ody	-2709
▁page	-2710
adies	-2711
▁No	-2712
▁Fort	-2713
▁gesam	-2714
▁weitere	-2715
▁subject	-2716
▁benef	-2717
▁Wahl	-2718
▁näch	-2719
ON	-2720
▁politischen	-2721
▁step	-2722
sen	-2723
▁German	-2724
ton	-2725
▁befindet	-2726
ours	-2727
row	-2728
veral	-2729
▁various	-2730
▁Lie	-2731
▁sowohl	-2732
▁Weg	-2733
▁EUR	-2734
isches	-2735
ength	-2736
▁government	-2737
▁old	-2738
▁Comp	-2739
▁El	-2740
▁organ	-2741
▁industry	-2742
▁women	-2743
ikel	-2744
▁New	-2745
▁ur	-2746
▁Ende	-2747
imate	-2748
▁Lin	-2749
▁sector	-2750
▁Haushalts	-2751
aster	-2752
oney	-2753
▁erreichen	-2754
▁Mark	-2755
▁comfort	-2756
▁Ihrer	-2757
▁dort	-2758
schutz	-2759
▁pat	-2760
▁aim	-2761
roll	-2762
isions	-2763
▁di	-2764
▁occ	-2765
▁pack	-2766
▁hatte	-2767
▁basis	-2768
▁guarante	-2769
hang	-2770
▁profession	-2771
▁beaut	-2772
irm	-2773
▁nie	-2774
esehen	-2775
itiative	-2776
▁arbeit	-2777
▁really	-2778
thing	-2779
▁deal	-2780
▁wirklich	-2781
▁innov	-2782
▁natürlich	-2783
ably	-2784
▁origin	-2785
▁Haupt	-2786
▁commit	-2787
lock	-2788
gemein	-2789
▁matter	-2790
▁Zukunft	-2791
▁meiner	-2792
▁bar	-2793
▁Fun	-2794
chan	-2795
ritte	-2796
▁typ	-2797
▁break	-2798
▁besonders	-2799
▁month	-2800
▁especially	-2801
▁col	-2802
▁Deutsch	-2803
▁Geschäfts	-2804
rift	-2805
▁Staaten	-2806
▁close	-2807
▁staff	-2808
▁tot	-2809
▁members	-2810
dings	-2811
sk	-2812
ived	-2813
▁Alle	-2814
▁ihnen	-2815
▁Gegen	-2816
▁hoch	-2817
uktur	-2818
▁unterstützen	-2819
til	-2820
ization	-2821
reaty	-2822
ima	-2823
▁prior	-2824
gende	-2825
▁done	-2826
50	-2827
neten	-2828
cellent	-2829
ances	-2830
riften	-2831
▁entfernt	-2832
▁gent	-2833
▁Forsch	-2834
▁period	-2835
▁doc	-2836
▁verschiedenen	-2837
▁Mehr	-2838
▁top	-2839
▁Produkt	-2840
reg	-2841
ünft	-2842
▁innerhalb	-2843
▁private	-2844
ifiz	-2845
finden	-2846
geord	-2847
zuf	-2848
▁third	-2849
▁Seiten	-2850
▁food	-2851
▁mot	-2852
ican	-2853
▁welt	-2854
▁Park	-2855
▁vielen	-2856
ino	-2857
app	-2858
▁create	-2859
ides	-2860
▁feat	-2861
werk	-2862
▁location	-2863
▁negot	-2864
treten	-2865
spl	-2866
▁Zwe	-2867
▁turn	-2868
asing	-2869
▁teil	-2870
ober	-2871
▁proced	-2872
ething	-2873
▁Ausschuss	-2874
ival	-2875
▁reform	-2876
amt	-2877
ograph	-2878
▁approach	-2879
ety	-2880
▁11	-2881
▁press	-2882
scheiden	-2883
▁Situation	-2884
▁Rolle	-2885
▁personal	-2886
kung	-2887
ai	-2888
duc	-2889
icient	-2890
neh	-2891
▁gener	-2892
▁instit	-2893
▁perform	-2894
▁sum	-2895
▁site	-2896
▁ple	-2897
ences	-2898
▁Programm	-2899
isis	-2900
raum	-2901
▁Jan	-2902
".	-2903
ichtet	-2904
inter	-2905
▁Hotels	-2906
▁enter	-2907
▁million	-2908
ühr	-2909
▁betr	-2910
indung	-2911
30	-2912
oment	-2913
▁nor	-2914
▁internationalen	-2915
lands	-2916
üd	-2917
▁Wettbewer	-2918
AR	-2919
weisen	-2920
▁among	-2921
fast	-2922
▁zwar	-2923
▁soc	-2924
▁Germany	-2925
▁job	-2926
▁prop	-2927
▁represent	-2928
▁lo	-2929
▁star	-2930
uc	-2931
▁Gru	-2932
▁Afr	-2933
▁event	-2934
▁single	-2935
ension	-2936
▁möchten	-2937
▁Terr	-2938
▁poin	-2939
ktor	-2940
ults	-2941
zip	-2942
eign	-2943
ec	-2944
uellen	-2945
▁several	-2946
ativen	-2947
ians	-2948
▁struct	-2949
ift	-2950
▁itself	-2951
▁decision	-2952
▁Tour	-2953
▁install	-2954
▁something	-2955
ittle	-2956
onds	-2957
▁doub	-2958
▁langu	-2959
▁Fest	-2960
olf	-2961
oor	-2962
▁list	-2963
ordin	-2964
eiten	-2965
wh	-2966
▁Ihren	-2967
iol	-2968
▁direkt	-2969
tember	-2970
▁bestimm	-2971
▁:	-2972
achst	-2973
▁resour	-2974
▁dür	-2975
▁hinaus	-2976
▁town	-2977
ministr	-2978
ände	-2979
▁Op	-2980
▁aufge	-2981
▁continue	-2982
rael	-2983
▁Disk	-2984
▁Woch	-2985
atch	-2986
▁favour	-2987
▁Verbrauch	-2988
",	-2989
▁Software	-2990
▁Strateg	-2991
▁rapporteur	-2992
▁material	-2993
wär	-2994
mos	-2995
▁general	-2996
▁Abst	-2997
▁Dire	-2998
▁automat	-2999
▁making	-3000
uth	-3001
▁gl	-3002
▁enc	-3003
▁crisis	-3004
▁Richtlinie	-3005
▁least	-3006
▁Wind	-3007
▁often	-3008
▁resolution	-3009
▁accept	-3010
mework	-3011
▁Su	-3012
▁Nutz	-3013
▁programme	-3014
▁she	-3015
▁Kü	-3016
▁excellent	-3017
IT	-3018
eg	-3019
sprache	-3020
▁gentlemen	-3021
hens	-3022
▁home	-3023
▁Rück	-3024
▁progress	-3025
▁Invest	-3026
▁away	-3027
▁introdu	-3028
▁serious	-3029
▁Kre	-3030
▁tro	-3031
ification	-3032
▁erste	-3033
▁plan	-3034
aps	-3035
ierungen	-3036
cel	-3037
wä	-3038
iations	-3039
▁konn	-3040
▁let	-3041
miss	-3042
▁peace	-3043
▁kind	-3044
nehmer	-3045
▁relations	-3046
ifen	-3047
met	-3048
auer	-3049
▁Chr	-3050
▁sup	-3051
▁Can	-3052
▁following	-3053
▁Uhr	-3054
iken	-3055
▁offen	-3056
▁understand	-3057
▁mar	-3058
▁going	-3059
▁2000	-3060
erien	-3061
▁family	-3062
▁management	-3063
▁ans	-3064
▁text	-3065
atives	-3066
▁name	-3067
▁stark	-3068
▁opin	-3069
IS	-3070
▁europäische	-3071
▁rules	-3072
▁particip	-3073
▁Berlin	-3074
iere	-3075
bei	-3076
▁contact	-3077
let	-3078
▁Transp	-3079
▁regul	-3080
▁Gesundheit	-3081
▁directive	-3082
oto	-3083
fehl	-3084
▁anal	-3085
▁Frank	-3086
▁fast	-3087
▁money	-3088
icial	-3089
produ	-3090
▁Emp	-3091
ksam	-3092
▁price	-3093
▁sett	-3094
gricult	-3095
weg	-3096
strument	-3097
▁My	-3098
fect	-3099
▁software	-3100
▁World	-3101
▁198	-3102
▁growth	-3103
antrag	-3104
▁range	-3105
▁Meinung	-3106
▁klar	-3107
▁mach	-3108
▁extrem	-3109
▁once	-3110
▁forward	-3111
▁feel	-3112
▁apart	-3113
▁little	-3114
ype	-3115
▁milit	-3116
▁hät	-3117
▁welcome	-3118
ully	-3119
though	-3120
▁Komm	-3121
▁online	-3122
▁einzel	-3123
leistungen	-3124
▁Univers	-3125
stück	-3126
▁inc	-3127
▁bal	-3128
go	-3129
▁line	-3130
▁ant	-3131
▁dest	-3132
icle	-3133
voll	-3134
esten	-3135
pekt	-3136
▁Met	-3137
wand	-3138
▁Bank	-3139
prü	-3140
▁towards	-3141
▁express	-3142
▁zus	-3143
etzung	-3144
▁Gleich	-3145
▁institutions	-3146
▁recog	-3147
zogen	-3148
▁Rep	-3149
▁Natur	-3150
▁absol	-3151
▁beiden	-3152
▁Gra	-3153
yr	-3154
ußen	-3155
19	-3156
▁Nov	-3157
▁weltweit	-3158
itäts	-3159
▁things	-3160
ference	-3161
yl	-3162
▁Gäste	-3163
▁ident	-3164
thers	-3165
▁optim	-3166
▁post	-3167
apan	-3168
enzen	-3169
▁until	-3170
▁etc	-3171
▁kommt	-3172
bet	-3173
weis	-3174
▁unserem	-3175
outh	-3176
ony	-3177
▁finanz	-3178
▁situ	-3179
asst	-3180
haus	-3181
teilung	-3182
ifft	-3183
▁mention	-3184
▁Zusammenhang	-3185
▁strong	-3186
▁Partner	-3187
▁walk	-3188
istic	-3189
▁customers	-3190
lik	-3191
▁communic	-3192
▁Madam	-3193
unds	-3194
anges	-3195
▁National	-3196
ured	-3197
airs	-3198
▁days	-3199
▁Fisch	-3200
gän	-3201
▁Span	-3202
ennen	-3203
zimmer	-3204
mat	-3205
▁Technolog	-3206
▁Do	-3207
▁increase	-3208
eu	-3209
▁Hilfe	-3210
▁Personen	-3211
▁stre	-3212
CH	-3213
ächst	-3214
▁Schluss	-3215
leicht	-3216
2.	-3217
lean	-3218
▁bestehen	-3219
läge	-3220
▁entsprechen	-3221
▁Pe	-3222
ume	-3223
▁App	-3224
▁2006	-3225
idence	-3226
▁aid	-3227
▁2.	-3228
iesen	-3229
ean	-3230
▁opportunity	-3231
ieten	-3232
▁hard	-3233
vent	-3234
▁ess	-3235
▁keep	-3236
▁seem	-3237
ocus	-3238
▁Dieses	-3239
▁Abgeord	-3240
DE	-3241
▁Treaty	-3242
▁Entschließ	-3243
▁agree	-3244
ison	-3245
atten	-3246
ommend	-3247
▁Mo	-3248
▁Artikel	-3249
rech	-3250
▁Jul	-3251
▁Verantwort	-3252
▁stellt	-3253
liches	-3254
äuf	-3255
aden	-3256
▁Ums	-3257
tract	-3258
▁rather	-3259
▁stär	-3260
▁Sep	-3261
fassung	-3262
▁Car	-3263
▁Lösung	-3264
▁weniger	-3265
▁War	-3266
▁mind	-3267
▁etwa	-3268
▁Fil	-3269
han	-3270
▁activities	-3271
▁ren	-3272
▁bringen	-3273
▁big	-3274
weil	-3275
ließen	-3276
AS	-3277
▁quite	-3278
▁führ	-3279
stra	-3280
▁Leben	-3281
ply	-3282
idency	-3283
mäß	-3284
▁ve	-3285
side	-3286
▁Weit	-3287
▁function	-3288
▁Demokrat	-3289
baren	-3290
▁Organis	-3291
OR	-3292
▁Präsidentin	-3293
crip	-3294
▁check	-3295
ales	-3296
▁might	-3297
▁sug	-3298
▁positive	-3299
▁begrü	-3300
ären	-3301
▁try	-3302
Pro	-3303
forderungen	-3304
▁Members	-3305
uell	-3306
▁sw	-3307
annten	-3308
▁Minister	-3309
▁tas	-3310
▁partners	-3311
▁Bas	-3312
▁dev	-3313
frage	-3314
ined	-3315
▁ja	-3316
▁elect	-3317
edom	-3318
▁resources	-3319
▁provided	-3320
▁gilt	-3321
▁daran	-3322
▁il	-3323
reiche	-3324
vorsch	-3325
wohl	-3326
▁bzw	-3327
ächlich	-3328
▁mean	-3329
rolle	-3330
▁Sc	-3331
ha	-3332
▁fully	-3333
bon	-3334
▁Deshalb	-3335
mosph	-3336
▁spiel	-3337
hnt	-3338
▁Kultur	-3339
▁Char	-3340
erecht	-3341
▁treat	-3342
▁land	-3343
ideo	-3344
onger	-3345
▁indem	-3346
▁gute	-3347
▁After	-3348
▁signific	-3349
▁Cent	-3350
▁umf	-3351
▁Kosten	-3352
▁qual	-3353
na	-3354
▁jeden	-3355
▁value	-3356
abhäng	-3357
▁gewähr	-3358
zeitig	-3359
▁economy	-3360
▁sogar	-3361
▁Geld	-3362
▁lab	-3363
▁port	-3364
▁class	-3365
▁bitte	-3366
▁yet	-3367
ählen	-3368
▁four	-3369
▁Millionen	-3370
▁ideal	-3371
letz	-3372
▁entscheiden	-3373
eits	-3374
alität	-3375
▁gesagt	-3376
▁mag	-3377
ücksicht	-3378
itions	-3379
▁Ass	-3380
iful	-3381
▁Preis	-3382
▁technology	-3383
▁include	-3384
legenheit	-3385
stadt	-3386
hunder	-3387
einander	-3388
ühren	-3389
plan	-3390
fert	-3391
▁Per	-3392
▁park	-3393
▁September	-3394
▁persön	-3395
ager	-3396
uh	-3397
▁genau	-3398
▁Erfahr	-3399
▁educ	-3400
▁Produkte	-3401
the	-3402
▁bor	-3403
völk	-3404
komm	-3405
▁kurz	-3406
ception	-3407
▁Europas	-3408
ämlich	-3409
▁Austr	-3410
lei	-3411
▁Ort	-3412
prochen	-3413
▁bank	-3414
▁erfolg	-3415
▁remain	-3416
ona	-3417
▁State	-3418
▁Nor	-3419
wendet	-3420
▁ladies	-3421
▁Sozial	-3422
amental	-3423
iten	-3424
ops	-3425
telle	-3426
▁having	-3427
▁nämlich	-3428
setzung	-3429
▁left	-3430
▁kosten	-3431
ij	-3432
▁times	-3433
▁solution	-3434
▁erwar	-3435
▁pur	-3436
ratic	-3437
▁tem	-3438
▁nehmen	-3439
▁along	-3440
▁Tats	-3441
▁field	-3442
ingen	-3443
▁bekannt	-3444
▁Projekt	-3445
▁proposals	-3446
▁gerade	-3447
▁costs	-3448
fully	-3449
▁meisten	-3450
tragen	-3451
recht	-3452
▁amendments	-3453
ativ	-3454
▁Priv	-3455
▁easy	-3456
roffen	-3457
▁Tod	-3458
▁log	-3459
▁politische	-3460
▁minutes	-3461
▁framework	-3462
illa	-3463
▁Grün	-3464
verb	-3465
half	-3466
▁Jahres	-3467
self	-3468
alten	-3469
▁Text	-3470
racy	-3471
▁safety	-3472
▁Wirtschaft	-3473
most	-3474
▁Rates	-3475
stant	-3476
▁recommend	-3477
armon	-3478
▁Punkt	-3479
▁unterschied	-3480
▁Ange	-3481
▁speak	-3482
▁light	-3483
▁led	-3484
▁Israel	-3485
▁ihn	-3486
▁ebenfalls	-3487
▁)	-3488
▁Gar	-3489
▁arch	-3490
▁week	-3491
▁Tür	-3492
anst	-3493
wahl	-3494
▁Sta	-3495
▁Dieser	-3496
▁above	-3497
▁Dank	-3498
▁flo	-3499
▁makes	-3500
▁Zugang	-3501
▁strength	-3502
▁gemacht	-3503
▁ak	-3504
▁adopted	-3505
handlungen	-3506
▁besser	-3507
▁u	-3508
iberal	-3509
▁recht	-3510
▁pa	-3511
▁tool	-3512
lement	-3513
▁essential	-3514
▁seinem	-3515
▁creat	-3516
▁Deutschland	-3517
▁Web	-3518
iben	-3519
▁taking	-3520
▁entire	-3521
chs	-3522
ledge	-3523
ators	-3524
▁40	-3525
ana	-3526
▁Unsere	-3527
inge	-3528
▁ü	-3529
-0	-3530
▁One	-3531
oph	-3532
ports	-3533
▁dessen	-3534
▁content	-3535
ysteme	-3536
▁verbunden	-3537
▁ihm	-3538
▁gehen	-3539
▁focus	-3540
▁Kap	-3541
▁verst	-3542
bare	-3543
▁behalf	-3544
▁others	-3545
OM	-3546
▁Janu	-3547
achten	-3548
▁charac	-3549
▁bath	-3550
▁viol	-3551
ethod	-3552
▁return	-3553
igital	-3554
▁called	-3555
unst	-3556
▁darf	-3557
▁website	-3558
reicht	-3559
▁anges	-3560
▁never	-3561
▁unterstützt	-3562
nete	-3563
▁flex	-3564
▁Entwicklungs	-3565
iers	-3566
▁constru	-3567
▁Bezug	-3568
▁wahr	-3569
iled	-3570
za	-3571
tag	-3572
▁opinion	-3573
aurants	-3574
▁gre	-3575
▁provides	-3576
ane	-3577
ünf	-3578
▁nah	-3579
▁Institution	-3580
word	-3581
▁sure	-3582
sweise	-3583
▁Komp	-3584
▁legislation	-3585
aged	-3586
▁darin	-3587
▁risk	-3588
▁2005	-3589
igr	-3590
▁term	-3591
▁agricult	-3592
▁Sa	-3593
▁results	-3594
▁wesent	-3595
ostel	-3596
benso	-3597
sh	-3598
gebung	-3599
ested	-3600
▁deliver	-3601
erst	-3602
▁Zust	-3603
▁building	-3604
▁pot	-3605
▁application	-3606
▁Antw	-3607
▁Sel	-3608
isiert	-3609
▁Ide	-3610
▁policies	-3611
▁projects	-3612
▁beginn	-3613
▁points	-3614
▁Pat	-3615
▁past	-3616
arian	-3617
▁fair	-3618
▁standard	-3619
▁attention	-3620
▁Fraktion	-3621
ufact	-3622
▁heart	-3623
▁Gl	-3624
▁mass	-3625
▁derzeit	-3626
▁simply	-3627
▁öffentlichen	-3628
▁Den	-3629
▁Buch	-3630
▁Rechte	-3631
ser	-3632
ric	-3633
ül	-3634
▁Wasser	-3635
▁beautiful	-3636
▁dom	-3637
ustain	-3638
▁team	-3639
▁responsibility	-3640
uz	-3641
▁concerned	-3642
vernment	-3643
▁freedom	-3644
▁due	-3645
▁dürfen	-3646
▁programm	-3647
▁Mär	-3648
reiben	-3649
▁nichts	-3650
▁schaffen	-3651
aussch	-3652
▁einigen	-3653
▁glaube	-3654
▁Qualität	-3655
▁Sol	-3656
▁rela	-3657
iner	-3658
▁questions	-3659
▁perfect	-3660
hing	-3661
oting	-3662
▁Hö	-3663
▁Sub	-3664
▁moder	-3665
▁cover	-3666
ished	-3667
▁Meer	-3668
now	-3669
mitted	-3670
zentr	-3671
▁Frei	-3672
irc	-3673
▁Groß	-3674
wür	-3675
ampf	-3676
▁Jahrhunder	-3677
▁Nicht	-3678
amb	-3679
ada	-3680
ients	-3681
▁brauchen	-3682
ähe	-3683
▁groups	-3684
▁lea	-3685
▁young	-3686
istan	-3687
▁Website	-3688
▁Früh	-3689
▁Flug	-3690
▁effective	-3691
▁appropr	-3692
▁abge	-3693
▁importance	-3694
ringen	-3695
▁bit	-3696
▁Angeb	-3697
afen	-3698
▁Fir	-3699
▁ihrem	-3700
▁Just	-3701
▁Rei	-3702
▁head	-3703
▁sollen	-3704
berg	-3705
▁Verkehr	-3706
rieg	-3707
ding	-3708
▁Co	-3709
▁Gemeinschaft	-3710
▁keinen	-3711
▁Restaurant	-3712
ceed	-3713
▁known	-3714
▁society	-3715
▁context	-3716
bour	-3717
▁strategy	-3718
zustellen	-3719
schließlich	-3720
▁TV	-3721
▁administr	-3722
uelle	-3723
▁verbess	-3724
▁zusätz	-3725
▁total	-3726
▁Pra	-3727
AL	-3728
▁handelt	-3729
▁Beschäft	-3730
arbeiten	-3731
▁Verbraucher	-3732
▁greater	-3733
▁continu	-3734
▁sea	-3735
▁Aussprache	-3736
utzt	-3737
▁nationalen	-3738
cen	-3739
▁Prof	-3740
frastr	-3741
onnen	-3742
wärt	-3743
▁environmental	-3744
▁weiterhin	-3745
▁version	-3746
▁challen	-3747
emp	-3748
▁holid	-3749
▁central	-3750
unkte	-3751
▁2004	-3752
äus	-3753
gesehen	-3754
▁standards	-3755
▁increasing	-3756
▁Japan	-3757
fs	-3758
▁attra	-3759
unächst	-3760
rimin	-3761
leben	-3762
eutet	-3763
EL	-3764
▁natural	-3765
iqu	-3766
▁Tre	-3767
▁infl	-3768
äter	-3769
▁Verw	-3770
▁Kolleg	-3771
▁Fortsch	-3772
▁Cont	-3773
itive	-3774
▁verste	-3775
spolitik	-3776
unehmen	-3777
ziehen	-3778
▁method	-3779
▁rad	-3780
▁road	-3781
▁versch	-3782
verkehr	-3783
▁table	-3784
stoff	-3785
term	-3786
pflicht	-3787
▁send	-3788
▁Sitz	-3789
The	-3790
▁201	-3791
▁Bem	-3792
▁arr	-3793
▁Schul	-3794
▁talk	-3795
▁Sal	-3796
▁significant	-3797
▁principle	-3798
ning	-3799
hib	-3800
▁manufact	-3801
▁heraus	-3802
ller	-3803
▁wenig	-3804
▁required	-3805
ette	-3806
acy	-3807
▁house	-3808
▁miss	-3809
▁bedeutet	-3810
cal	-3811
▁betrifft	-3812
▁deutlich	-3813
▁Ebene	-3814
▁recent	-3815
▁benöt	-3816
▁reserv	-3817
▁views	-3818
▁Far	-3819
▁words	-3820
ender	-3821
atis	-3822
▁demand	-3823
▁Leist	-3824
▁institution	-3825
▁II	-3826
▁erklär	-3827
▁Zus	-3828
unities	-3829
zeichnet	-3830
▁moment	-3831
▁Dr	-3832
haltung	-3833
ided	-3834
▁Design	-3835
▁macht	-3836
wach	-3837
▁würden	-3838
bereit	-3839
▁sei	-3840
▁Christ	-3841
▁quick	-3842
▁Klima	-3843
▁besten	-3844
EC	-3845
▁capital	-3846
änger	-3847
▁23	-3848
▁komple	-3849
▁unver	-3850
▁solche	-3851
▁lar	-3852
rach	-3853
uk	-3854
▁Änderungsan	-3855
▁Abstimmung	-3856
onen	-3857
genda	-3858
läss	-3859
▁meeting	-3860
OS	-3861
▁deshalb	-3862
icro	-3863
▁clearly	-3864
▁user	-3865
▁Apr	-3866
▁Cas	-3867
▁training	-3868
▁breakfast	-3869
staat	-3870
ulture	-3871
▁authorities	-3872
▁music	-3873
ex	-3874
▁don	-3875
▁learn	-3876
▁relax	-3877
useum	-3878
ims	-3879
▁aufgrund	-3880
fall	-3881
atal	-3882
anze	-3883
▁wichtige	-3884
▁cla	-3885
▁share	-3886
▁oft	-3887
ban	-3888
▁interess	-3889
▁regional	-3890
spruch	-3891
iting	-3892
▁Bezieh	-3893
▁network	-3894
äsent	-3895
erous	-3896
▁pub	-3897
aging	-3898
schluss	-3899
▁sour	-3900
▁extra	-3901
mals	-3902
▁Wohn	-3903
ritten	-3904
frist	-3905
▁achieve	-3906
▁Besuch	-3907
▁November	-3908
bung	-3909
cent	-3910
▁Wachst	-3911
▁fa	-3912
▁parl	-3913
▁pages	-3914
An	-3915
▁May	-3916
▁longer	-3917
▁Gesetz	-3918
▁clean	-3919
▁Dok	-3920
gesetzt	-3921
▁night	-3922
▁Gesellschaft	-3923
vo	-3924
▁beispiel	-3925
▁via	-3926
▁Mitarbeit	-3927
▁technical	-3928
▁distrib	-3929
change	-3930
züglich	-3931
▁sele	-3932
▁mat	-3933
▁Von	-3934
▁Windows	-3935
yle	-3936
▁findet	-3937
▁nächsten	-3938
▁Bevölk	-3939
hörden	-3940
▁though	-3941
▁Ag	-3942
▁appear	-3943
▁aspect	-3944
▁enough	-3945
▁Will	-3946
▁directly	-3947
▁Brit	-3948
▁solutions	-3949
▁ern	-3950
▁months	-3951
ari	-3952
▁facilities	-3953
▁according	-3954
▁fish	-3955
▁side	-3956
platz	-3957
▁nature	-3958
wohn	-3959
▁Kunst	-3960
▁erne	-3961
▁Bro	-3962
jen	-3963
▁Richtung	-3964
▁imm	-3965
▁lange	-3966
▁Demokratie	-3967
ption	-3968
▁verein	-3969
▁Umsetzung	-3970
unch	-3971
gelegt	-3972
bank	-3973
ones	-3974
▁Such	-3975
▁Ansicht	-3976
▁Ira	-3977
▁internal	-3978
elves	-3979
▁allerdings	-3980
▁First	-3981
▁proposed	-3982
▁prec	-3983
ri	-3984
▁history	-3985
ffe	-3986
▁nutzen	-3987
▁fundamental	-3988
▁Betrie	-3989
▁Auss	-3990
▁guests	-3991
▁employment	-3992
ief	-3993
▁responsible	-3994
▁Menschenrechte	-3995
▁vol	-3996
▁Nähe	-3997
▁test	-3998
▁gewährle	-3999
AP	-4000
rank	-4001
▁subs	-4002
▁Ju	-4003
▁interests	-4004
▁vorgesch	-4005
▁currently	-4006
orted	-4007
▁requirements	-4008
▁sustain	-4009
gency	-4010
örderung	-4011
▁obl	-4012
▁April	-4013
AD	-4014
▁Russia	-4015
▁Herren	-4016
▁maintain	-4017
▁needed	-4018
▁vier	-4019
▁prevent	-4020
▁Fehl	-4021
▁Stat	-4022
kämp	-4023
umente	-4024
▁civil	-4025
▁Bü	-4026
▁character	-4027
ables	-4028
▁Ins	-4029
▁cultural	-4030
▁Industrie	-4031
▁events	-4032
wirkungen	-4033
▁Ha	-4034
▁terror	-4035
hem	-4036
▁bil	-4037
ker	-4038
tes	-4039
ube	-4040
ither	-4041
ließlich	-4042
▁Wert	-4043
▁Entscheidung	-4044
▁thems	-4045
▁assist	-4046
ellen	-4047
gru	-4048
▁mount	-4049
▁foreign	-4050
istischen	-4051
▁themselves	-4052
▁Selbst	-4053
▁web	-4054
▁zie	-4055
▁Kar	-4056
▁Verantwortung	-4057
stehen	-4058
▁parties	-4059
▁recogn	-4060
ench	-4061
▁betre	-4062
▁sy	-4063
teile	-4064
llig	-4065
verständ	-4066
▁Ir	-4067
▁apply	-4068
▁Please	-4069
drück	-4070
▁happen	-4071
▁involved	-4072
▁Struktur	-4073
lauf	-4074
▁live	-4075
heim	-4076
▁efforts	-4077
▁From	-4078
/200	-4079
▁regions	-4080
▁197	-4081
ürz	-4082
aper	-4083
folgt	-4084
▁beispielsweise	-4085
▁anim	-4086
▁hoffe	-4087
irt	-4088
▁000	-4089
cies	-4090
▁Kons	-4091
▁Bedingungen	-4092
▁century	-4093
▁Ziele	-4094
ama	-4095
IC	-4096
▁competition	-4097
▁extremely	-4098
▁Fern	-4099
esented	-4100
▁force	-4101
▁Druck	-4102
▁ago	-4103
▁illeg	-4104
▁station	-4105
mbH	-4106
▁Erfolg	-4107
▁Benutz	-4108
▁wohl	-4109
iellen	-4110
▁voted	-4111
▁Paris	-4112
▁jeweil	-4113
▁low	-4114
▁Jun	-4115
richtung	-4116
▁democracy	-4117
▁bedeut	-4118
▁fight	-4119
▁gegeben	-4120
ynam	-4121
ommod	-4122
▁kont	-4123
▁Anwendung	-4124
▁notwendig	-4125
▁Bau	-4126
ired	-4127
▁camp	-4128
▁gemeinsamen	-4129
▁expect	-4130
▁gehört	-4131
ienen	-4132
2,	-4133
▁Dam	-4134
▁Tages	-4135
üssel	-4136
▁Trans	-4137
▁item	-4138
▁Interesse	-4139
rup	-4140
▁request	-4141
▁vielleicht	-4142
▁Gre	-4143
▁More	-4144
▁language	-4145
cke	-4146
▁AG	-4147
▁please	-4148
▁Raum	-4149
▁Gebiet	-4150
itionen	-4151
▁changes	-4152
▁erziel	-4153
▁implementation	-4154
trie	-4155
▁Grundlage	-4156
peten	-4157
urf	-4158
▁dank	-4159
has	-4160
obile	-4161
val	-4162
ele	-4163
▁verwendet	-4164
▁caus	-4165
schn	-4166
▁markets	-4167
▁guarantee	-4168
▁kleinen	-4169
▁developed	-4170
▁Vorschläge	-4171
bel	-4172
▁Off	-4173
▁bevor	-4174
▁2003	-4175
▁GmbH	-4176
▁ermöglich	-4177
ta	-4178
dam	-4179
60	-4180
▁Bil	-4181
▁Einz	-4182
kra	-4183
▁disk	-4184
key	-4185
▁Pf	-4186
▁Ihrem	-4187
▁prep	-4188
▁Parte	-4189
arf	-4190
▁Nord	-4191
▁separ	-4192
▁Eur	-4193
▁neu	-4194
▁upon	-4195
inzip	-4196
▁wind	-4197
▁By	-4198
linien	-4199
▁targe	-4200
▁Tro	-4201
▁Heraus	-4202
igur	-4203
▁Wel	-4204
-1	-4205
▁Daher	-4206
▁Musik	-4207
ragen	-4208
▁charge	-4209
▁corre	-4210
▁erreicht	-4211
▁enthalten	-4212
▁Wieder	-4213
igungs	-4214
würd	-4215
▁Außer	-4216
jekte	-4217
▁comfortable	-4218
▁Geschichte	-4219
▁contain	-4220
atory	-4221
▁Einsatz	-4222
sichtlich	-4223
▁Stre	-4224
▁demokrat	-4225
lied	-4226
▁soon	-4227
▁protect	-4228
uct	-4229
▁lot	-4230
vert	-4231
▁circ	-4232
ublik	-4233
▁Doch	-4234
▁Aug	-4235
▁sprechen	-4236
▁Außen	-4237
▁Soc	-4238
▁Tele	-4239
▁halten	-4240
▁farm	-4241
US	-4242
deut	-4243
amous	-4244
▁Bre	-4245
▁Krit	-4246
▁zust	-4247
▁ö	-4248
▁regulation	-4249
▁mess	-4250
-,	-4251
andid	-4252
▁comes	-4253
▁sozialen	-4254
onstr	-4255
▁Reihe	-4256
dle	-4257
nehm	-4258
▁Date	-4259
▁situated	-4260
▁Wort	-4261
▁pool	-4262
▁Möglichkeiten	-4263
▁könnten	-4264
▁Kön	-4265
▁Book	-4266
▁negotiations	-4267
tended	-4268
bl	-4269
▁Verfahren	-4270
▁prices	-4271
estern	-4272
▁cases	-4273
play	-4274
ipped	-4275
ense	-4276
▁(1	-4277
▁maxim	-4278
handlung	-4279
▁werde	-4280
▁einges	-4281
ips	-4282
gliche	-4283
crib	-4284
▁Schwe	-4285
▁Mot	-4286
▁France	-4287
▁restaurant	-4288
ätzen	-4289
teilt	-4290
ump	-4291
▁erfü	-4292
best	-4293
▁developing	-4294
▁previous	-4295
▁Netz	-4296
ano	-4297
▁Frieden	-4298
▁berücksicht	-4299
orge	-4300
▁Prot	-4301
ging	-4302
▁South	-4303
merksam	-4304
▁either	-4305
teilen	-4306
▁nam	-4307
hend	-4308
▁übern	-4309
▁Blick	-4310
lling	-4311
▁created	-4312
bildung	-4313
immungen	-4314
mut	-4315
▁ausgest	-4316
▁Cour	-4317
▁60	-4318
zeigt	-4319
urt	-4320
TM	-4321
auen	-4322
▁education	-4323
abel	-4324
▁Debatte	-4325
▁Aktiv	-4326
gern	-4327
inner	-4328
aler	-4329
arbeitung	-4330
▁minim	-4331
▁states	-4332
▁Öff	-4333
prise	-4334
geln	-4335
▁indic	-4336
▁Damen	-4337
▁surround	-4338
stall	-4339
▁everything	-4340
hes	-4341
▁Arbeitspl	-4342
▁arbeiten	-4343
▁fünf	-4344
▁höch	-4345
mark	-4346
date	-4347
▁schwier	-4348
▁amb	-4349
IP	-4350
▁unique	-4351
attet	-4352
▁Wissen	-4353
▁final	-4354
▁Erweit	-4355
▁Mod	-4356
▁Erklär	-4357
▁improve	-4358
▁almost	-4359
grif	-4360
▁mer	-4361
▁Hoch	-4362
▁accommod	-4363
▁Steuer	-4364
▁verschiedene	-4365
istet	-4366
▁Iran	-4367
anten	-4368
▁pict	-4369
usst	-4370
▁climate	-4371
▁later	-4372
▁bleiben	-4373
rieben	-4374
▁Cor	-4375
ichen	-4376
▁Kle	-4377
▁vorgeschlagen	-4378
▁cut	-4379
▁verfügt	-4380
iable	-4381
▁Integr	-4382
▁euro	-4383
▁altern	-4384
▁additional	-4385
▁immed	-4386
▁Auswirkungen	-4387
▁French	-4388
gegen	-4389
▁program	-4390
▁true	-4391
unik	-4392
igte	-4393
TO	-4394
▁stor	-4395
haft	-4396
▁Room	-4397
haps	-4398
▁thus	-4399
▁living	-4400
▁Landes	-4401
chnik	-4402
ka	-4403
▁schein	-4404
▁ermöglicht	-4405
▁Presidency	-4406
ulate	-4407
▁Sport	-4408
▁Mont	-4409
eless	-4410
▁Plan	-4411
▁fort	-4412
▁gemeinsame	-4413
▁Hinblick	-4414
ibr	-4415
▁Minuten	-4416
ingt	-4417
▁file	-4418
ipment	-4419
▁actually	-4420
▁Institutionen	-4421
▁included	-4422
▁Platz	-4423
ielle	-4424
▁analys	-4425
▁wide	-4426
erseits	-4427
▁Unser	-4428
onn	-4429
int	-4430
ilar	-4431
▁Diskuss	-4432
ikt	-4433
pendent	-4434
bahn	-4435
wegen	-4436
▁idea	-4437
▁konkre	-4438
▁tats	-4439
▁monitor	-4440
▁democratic	-4441
▁join	-4442
▁Apart	-4443
▁lack	-4444
▁official	-4445
▁seen	-4446
▁hatten	-4447
▁akzept	-4448
▁hold	-4449
▁Kraft	-4450
▁Prozess	-4451
▁travel	-4452
▁rate	-4453
RO	-4454
vin	-4455
▁zeigt	-4456
▁receive	-4457
ires	-4458
mm	-4459
▁EC	-4460
▁Sicherheits	-4461
▁schrift	-4462
ental	-4463
▁führt	-4464
▁Strategie	-4465
laden	-4466
▁encour	-4467
▁document	-4468
ommer	-4469
1,	-4470
▁Rechn	-4471
spräsident	-4472
▁bisher	-4473
▁‘	-4474
ißt	-4475
▁vollständ	-4476
lle	-4477
.0	-4478
hinder	-4479
▁Frühstück	-4480
jenigen	-4481
▁erforderlich	-4482
▁Änderungsantrag	-4483
fil	-4484
▁Dis	-4485
▁contract	-4486
▁funds	-4487
▁Tatsache	-4488
anced	-4489
barkeit	-4490
▁Beg	-4491
▁type	-4492
▁Ergebnis	-4493
▁Nie	-4494
rechts	-4495
▁Forschung	-4496
mail	-4497
▁Kir	-4498
adurch	-4499
lack	-4500
ester	-4501
▁knowledge	-4502
ios	-4503
ogra	-4504
▁Ant	-4505
▁held	-4506
setzen	-4507
▁Lis	-4508
auber	-4509
zer	-4510
▁vill	-4511
▁funktion	-4512
folgen	-4513
▁appropriate	-4514
frei	-4515
▁happ	-4516
▁gesamten	-4517
▁Schritt	-4518
▁outside	-4519
▁suggest	-4520
▁Webs	-4521
▁dialog	-4522
feld	-4523
rachten	-4524
▁ebenso	-4525
:00	-4526
▁27	-4527
▁Ausdruck	-4528
▁school	-4529
▁enl	-4530
▁designed	-4531
▁€	-4532
▁angeb	-4533
▁thing	-4534
ound	-4535
stead	-4536
▁allgemein	-4537
▁American	-4538
▁entwickelt	-4539
iens	-4540
▁assoc	-4541
▁Arch	-4542
▁Ris	-4543
des	-4544
▁Aff	-4545
ießen	-4546
▁Erst	-4547
▁einzelnen	-4548
▁Lond	-4549
▁investment	-4550
▁procedure	-4551
▁features	-4552
▁erwä	-4553
▁publish	-4554
öglichen	-4555
▁Rad	-4556
iews	-4557
▁West	-4558
ork	-4559
ählt	-4560
▁Regionen	-4561
kr	-4562
fragen	-4563
isieren	-4564
▁später	-4565
ctors	-4566
▁Familien	-4567
ässt	-4568
▁Hers	-4569
▁betra	-4570
▁impact	-4571
▁early	-4572
▁darum	-4573
▁danken	-4574
▁professional	-4575
atisf	-4576
▁Funktion	-4577
▁workers	-4578
iance	-4579
ternal	-4580
▁Du	-4581
▁Währ	-4582
▁potential	-4583
▁Kolleginnen	-4584
▁famous	-4585
▁Außerdem	-4586
jähr	-4587
▁Fund	-4588
▁Portug	-4589
▁five	-4590
▁Vertre	-4591
ländern	-4592
▁internationale	-4593
▁Com	-4594
ams	-4595
▁propert	-4596
otos	-4597
▁majority	-4598
▁Mitglieder	-4599
▁relev	-4600
▁answer	-4601
oper	-4602
ood	-4603
▁wider	-4604
▁Nat	-4605
orf	-4606
enken	-4607
igration	-4608
▁normal	-4609
ko	-4610
▁looking	-4611
▁Staats	-4612
imme	-4613
▁hon	-4614
fel	-4615
▁throughout	-4616
▁Führ	-4617
oid	-4618
▁across	-4619
▁Version	-4620
▁download	-4621
clud	-4622
▁Antwort	-4623
▁1,	-4624
änden	-4625
▁Zur	-4626
▁Acc	-4627
▁denke	-4628
mitteln	-4629
▁customer	-4630
▁cop	-4631
indest	-4632
▁Proz	-4633
fähigkeit	-4634
▁hätte	-4635
▁Dec	-4636
ändert	-4637
äche	-4638
▁takes	-4639
▁communication	-4640
▁General	-4641
▁Denn	-4642
▁hours	-4643
▁doing	-4644
▁draw	-4645
▁angenommen	-4646
▁behand	-4647
cure	-4648
.00	-4649
pression	-4650
▁exclus	-4651
▁jedem	-4652
▁Verhandlungen	-4653
▁space	-4654
▁links	-4655
cep	-4656
▁Binnen	-4657
▁enable	-4658
▁ever	-4659
▁transl	-4660
▁certainly	-4661
▁que	-4662
▁konnte	-4663
▁emphas	-4664
▁North	-4665
▁Bereichen	-4666
▁univers	-4667
▁erhö	-4668
va	-4669
▁Zum	-4670
▁Vereinigten	-4671
▁Pak	-4672
▁parts	-4673
▁strengthen	-4674
▁befinden	-4675
verfahren	-4676
▁gemeinsam	-4677
▁vorh	-4678
kn	-4679
▁consequ	-4680
.000	-4681
▁Abgeordneten	-4682
▁works	-4683
▁August	-4684
▁weiß	-4685
▁Luft	-4686
ösen	-4687
arbeitet	-4688
ült	-4689
▁Mil	-4690
▁setzen	-4691
▁neues	-4692
liegen	-4693
▁London	-4694
▁Position	-4695
▁users	-4696
▁traditional	-4697
▁proper	-4698
cer	-4699
▁date	-4700
▁Handels	-4701
▁weiteren	-4702
▁guest	-4703
▁umfassen	-4704
▁erhe	-4705
▁hinter	-4706
▁aud	-4707
▁America	-4708
▁colleag	-4709
kämpfung	-4710
bru	-4711
uren	-4712
▁Süd	-4713
▁äußer	-4714
▁Bevölkerung	-4715
hung	-4716
▁arg	-4717
▁ca	-4718
▁took	-4719
ällen	-4720
▁Zentrum	-4721
▁record	-4722
▁gleichzeitig	-4723
▁Dialog	-4724
onom	-4725
▁Beziehungen	-4726
▁concerns	-4727
▁solid	-4728
▁Turkey	-4729
▁complex	-4730
▁mechan	-4731
hab	-4732
stre	-4733
halte	-4734
▁Gemeinschafts	-4735
▁existing	-4736
▁divers	-4737
zif	-4738
▁amount	-4739
rad	-4740
▁eth	-4741
▁zuf	-4742
▁Vertra	-4743
oking	-4744
kei	-4745
▁lat	-4746
ügen	-4747
länder	-4748
▁Terror	-4749
▁Werk	-4750
▁resol	-4751
▁eigent	-4752
aly	-4753
wie	-4754
▁original	-4755
formen	-4756
▁relig	-4757
▁helfen	-4758
▁21	-4759
▁Abkommen	-4760
uted	-4761
ET	-4762
teid	-4763
▁Let	-4764
fortun	-4765
▁Online	-4766
ipl	-4767
äss	-4768
alter	-4769
▁cross	-4770
ava	-4771
aring	-4772
▁Leit	-4773
erei	-4774
ille	-4775
▁neben	-4776
▁model	-4777
▁heißt	-4778
▁Interessen	-4779
▁jede	-4780
▁aktiv	-4781
▁connection	-4782
sehen	-4783
lang	-4784
▁Handel	-4785
▁Flugh	-4786
▁Kos	-4787
ias	-4788
▁Pa	-4789
▁leading	-4790
▁lux	-4791
▁Programme	-4792
▁Aufgabe	-4793
ande	-4794
orre	-4795
▁rund	-4796
▁programmes	-4797
▁vö	-4798
▁PC	-4799
▁half	-4800
▁mentioned	-4801
▁military	-4802
▁tele	-4803
▁Türkei	-4804
fluss	-4805
AM	-4806
richtungen	-4807
▁Schlussel	-4808
iddle	-4809
▁80	-4810
▁card	-4811
▁built	-4812
▁CD	-4813
▁beit	-4814
face	-4815
ara	-4816
▁reasons	-4817
ball	-4818
▁writing	-4819
▁Beitrag	-4820
▁conflic	-4821
esh	-4822
▁completely	-4823
▁absolute	-4824
▁demonstr	-4825
▁concerning	-4826
▁parliament	-4827
▁friendly	-4828
''	-4829
▁Kontrolle	-4830
▁Inform	-4831
▁nothing	-4832
ini	-4833
ayer	-4834
▁Hol	-4835
▁community	-4836
▁empf	-4837
▁intens	-4838
▁kleine	-4839
▁digital	-4840
▁gestellt	-4841
▁decisions	-4842
▁related	-4843
▁Liste	-4844
zös	-4845
▁Fuß	-4846
range	-4847
ole	-4848
▁game	-4849
▁wichtigen	-4850
▁population	-4851
▁schwer	-4852
▁aware	-4853
▁prakt	-4854
üsse	-4855
▁Ukra	-4856
affung	-4857
▁extens	-4858
▁gegenwärt	-4859
▁Government	-4860
hlen	-4861
amera	-4862
▁Stabil	-4863
▁High	-4864
▁verd	-4865
esserung	-4866
▁Themen	-4867
▁English	-4868
▁although	-4869
▁emer	-4870
▁Kampf	-4871
temp	-4872
▁gelten	-4873
▁Court	-4874
▁Einzel	-4875
▁meinen	-4876
▁Sy	-4877
ush	-4878
▁Febru	-4879
▁joint	-4880
führen	-4881
gangenen	-4882
AC	-4883
uffer	-4884
orten	-4885
▁front	-4886
SE	-4887
▁Förderung	-4888
▁basic	-4889
▁See	-4890
una	-4891
▁Wettbewerbs	-4892
▁Verpflicht	-4893
▁assess	-4894
odell	-4895
▁gab	-4896
▁bleibt	-4897
▁liegen	-4898
▁Mag	-4899
ID	-4900
▁allows	-4901
inden	-4902
▁unseres	-4903
▁includes	-4904
▁internet	-4905
quis	-4906
▁becom	-4907
arity	-4908
ba	-4909
grat	-4910
▁Verbindung	-4911
ox	-4912
▁Mor	-4913
▁holiday	-4914
itable	-4915
▁spr	-4916
▁$	-4917
more	-4918
▁Since	-4919
▁committee	-4920
▁jedes	-4921
▁media	-4922
▁culture	-4923
▁practice	-4924
▁enlarge	-4925
▁Barcel	-4926
griff	-4927
ills	-4928
licken	-4929
▁advant	-4930
▁deter	-4931
lies	-4932
▁choice	-4933
▁Erweiterung	-4934
▁Gree	-4935
rab	-4936
ological	-4937
ying	-4938
▁bekommen	-4939
▁Volks	-4940
Re	-4941
▁search	-4942
zeugen	-4943
▁spezie	-4944
lant	-4945
▁agreements	-4946
osen	-4947
▁leaders	-4948
▁gestimmt	-4949
▁consult	-4950
len	-4951
▁Reform	-4952
▁nahe	-4953
▁IS	-4954
minister	-4955
nissen	-4956
▁Konferenz	-4957
▁simple	-4958
▁erinn	-4959
bedingungen	-4960
Mail	-4961
▁Rel	-4962
▁Sup	-4963
▁jobs	-4964
▁poor	-4965
▁fail	-4966
▁err	-4967
zunehmen	-4968
älle	-4969
▁commer	-4970
annte	-4971
▁wa	-4972
▁Vis	-4973
▁Che	-4974
▁warm	-4975
▁values	-4976
▁Krise	-4977
itness	-4978
▁Now	-4979
▁body	-4980
▁wün	-4981
▁received	-4982
▁Thank	-4983
▁spend	-4984
▁credit	-4985
ikanischen	-4986
iated	-4987
rachen	-4988
uclear	-4989
▁conclus	-4990
▁Pass	-4991
▁oblig	-4992
▁1999	-4993
▁objectives	-4994
▁bess	-4995
vement	-4996
iterran	-4997
lam	-4998
▁prim	-4999
▁center	-5000
▁established	-5001
▁performance	-5002
pite	-5003
▁Damit	-5004
▁satisf	-5005
jahr	-5006
▁wegen	-5007
gl	-5008
▁transfer	-5009
ördern	-5010
erve	-5011
▁move	-5012
▁Chin	-5013
pected	-5014
essour	-5015
alien	-5016
▁Wachstum	-5017
geschlossen	-5018
▁angem	-5019
öst	-5020
▁Kop	-5021
▁Entschließung	-5022
▁Home	-5023
▁applications	-5024
ovo	-5025
▁lok	-5026
▁package	-5027
▁equipment	-5028
▁richtig	-5029
▁plann	-5030
▁computer	-5031
▁Strand	-5032
dom	-5033
struments	-5034
▁files	-5035
▁wunder	-5036
▁Mitarbeiter	-5037
pass	-5038
mbol	-5039
▁attack	-5040
▁purch	-5041
▁verantwort	-5042
ourn	-5043
▁capac	-5044
▁Lux	-5045
▁Nutzung	-5046
▁Behörden	-5047
ason	-5048
▁gerne	-5049
vious	-5050
▁Prior	-5051
▁erlaub	-5052
▁Frankreich	-5053
ery	-5054
▁broad	-5055
such	-5056
▁wichtigsten	-5057
▁Lisbon	-5058
▁nachhalt	-5059
▁Cons	-5060
▁durchge	-5061
▁quickly	-5062
▁sun	-5063
▁below	-5064
▁Imp	-5065
eden	-5066
▁Here	-5067
▁Augen	-5068
▁pleas	-5069
▁Ze	-5070
▁regarding	-5071
▁keyword	-5072
▁image	-5073
▁mehrere	-5074
▁Verordnung	-5075
▁Ober	-5076
emb	-5077
▁harmon	-5078
▁Aufent	-5079
▁sag	-5080
ED	-5081
▁stop	-5082
▁initi	-5083
gesamt	-5084
▁Urlaub	-5085
▁unabhäng	-5086
▁herr	-5087
▁Ausschusses	-5088
uck	-5089
abon	-5090
▁hinsichtlich	-5091
▁sound	-5092
sitz	-5093
este	-5094
wide	-5095
▁face	-5096
öhn	-5097
▁wonder	-5098
▁IT	-5099
osed	-5100
ico	-5101
▁cru	-5102
▁Liss	-5103
▁Imm	-5104
ennung	-5105
▁Reise	-5106
▁trotz	-5107
icles	-5108
▁agricultural	-5109
erweise	-5110
▁Gruppe	-5111
▁einger	-5112
▁objective	-5113
▁Notwend	-5114
▁Volk	-5115
▁reports	-5116
▁Serv	-5117
▁Bitte	-5118
▁Forder	-5119
inne	-5120
▁fran	-5121
▁ganze	-5122
ften	-5123
stellungen	-5124
,000	-5125
▁jud	-5126
▁goods	-5127
▁Verbesserung	-5128
gn	-5129
▁ganzen	-5130
▁option	-5131
▁seems	-5132
▁ermöglichen	-5133
▁Auswahl	-5134
undes	-5135
▁huge	-5136
ernen	-5137
▁popular	-5138
▁+	-5139
statt	-5140
▁East	-5141
Ver	-5142
▁benefit	-5143
▁Wochen	-5144
▁Veranst	-5145
▁enthält	-5146
▁experien	-5147
chter	-5148
aving	-5149
▁Bad	-5150
▁recently	-5151
imension	-5152
seit	-5153
▁beein	-5154
put	-5155
▁22	-5156
▁sense	-5157
▁governments	-5158
▁south	-5159
▁industrial	-5160
▁note	-5161
▁schön	-5162
teller	-5163
entwick	-5164
▁self	-5165
ros	-5166
▁contains	-5167
gef	-5168
gelt	-5169
▁Macht	-5170
▁zeigen	-5171
.,	-5172
▁Sant	-5173
▁wobei	-5174
schließend	-5175
▁Anfang	-5176
▁oil	-5177
iveness	-5178
▁achieved	-5179
▁party	-5180
▁Lissabon	-5181
▁Sim	-5182
▁Russland	-5183
▁*	-5184
▁leben	-5185
pid	-5186
▁passen	-5187
▁Pan	-5188
ón	-5189
▁Link	-5190
brigen	-5191
ps	-5192
istische	-5193
▁City	-5194
▁Innov	-5195
äum	-5196
opping	-5197
wander	-5198
▁indeed	-5199
▁code	-5200
▁engine	-5201
▁ill	-5202
▁Some	-5203
▁grund	-5204
▁Standard	-5205
▁garant	-5206
▁treatment	-5207
lassen	-5208
kennen	-5209
möglichkeit	-5210
▁rail	-5211
▁Finally	-5212
erc	-5213
▁Dokument	-5214
▁Gelegenheit	-5215
▁Amend	-5216
fahrt	-5217
▁initiative	-5218
▁spac	-5219
▁highly	-5220
sterreich	-5221
▁-,	-5222
▁double	-5223
wertungen	-5224
▁frü	-5225
▁Global	-5226
▁correct	-5227
▁Darüber	-5228
▁spielen	-5229
haupt	-5230
▁ruh	-5231
▁Up	-5232
▁vict	-5233
▁Affairs	-5234
▁veh	-5235
▁Gewalt	-5236
▁nice	-5237
▁levels	-5238
mor	-5239
▁lässt	-5240
▁beginning	-5241
▁congrat	-5242
fonds	-5243
▁Fach	-5244
▁successful	-5245
mann	-5246
lla	-5247
▁heut	-5248
▁efficient	-5249
▁Bef	-5250
▁Insel	-5251
otion	-5252
▁mittel	-5253
▁rates	-5254
▁Schaffung	-5255
▁!	-5256
▁Central	-5257
ostels	-5258
▁Zweit	-5259
▁higher	-5260
▁Binnenmarkt	-5261
itect	-5262
▁click	-5263
▁verbessern	-5264
oppel	-5265
▁Club	-5266
▁Ergebnisse	-5267
▁floor	-5268
iment	-5269
▁Gebä	-5270
▁Barcelona	-5271
▁increased	-5272
▁28	-5273
▁Angebot	-5274
▁equipped	-5275
itel	-5276
fortunately	-5277
▁völlig	-5278
▁carry	-5279
▁exchange	-5280
▁everyone	-5281
nern	-5282
▁Management	-5283
bre	-5284
▁Team	-5285
fon	-5286
ienste	-5287
iko	-5288
▁garden	-5289
▁June	-5290
icien	-5291
▁Kern	-5292
▁presented	-5293
▁einzig	-5294
▁Verwendung	-5295
▁super	-5296
anzen	-5297
▁Personal	-5298
schw	-5299
▁Voraus	-5300
▁ut	-5301
▁comprom	-5302
oo	-5303
▁gefähr	-5304
▁grundlegen	-5305
▁scient	-5306
▁dialogue	-5307
▁Anzahl	-5308
▁profit	-5309
▁Inde	-5310
▁integration	-5311
ßt	-5312
ützen	-5313
lace	-5314
▁Akt	-5315
▁furn	-5316
onse	-5317
stances	-5318
mehr	-5319
▁Second	-5320
ätigkeit	-5321
▁consumers	-5322
▁tw	-5323
▁Liefer	-5324
▁los	-5325
▁red	-5326
▁frei	-5327
▁coll	-5328
▁3.	-5329
▁verwenden	-5330
▁dang	-5331
ering	-5332
▁series	-5333
vorschriften	-5334
lier	-5335
▁Amster	-5336
▁häuf	-5337
▁eigene	-5338
▁Les	-5339
▁verfügen	-5340
▁Regierungen	-5341
ued	-5342
aufen	-5343
▁Woche	-5344
isted	-5345
abor	-5346
VD	-5347
izien	-5348
örper	-5349
▁Material	-5350
▁reviews	-5351
▁block	-5352
▁500	-5353
▁age	-5354
▁stage	-5355
organis	-5356
▁sent	-5357
agn	-5358
▁kulture	-5359
▁guten	-5360
▁active	-5361
▁Ho	-5362
..."	-5363
▁Bra	-5364
▁Tage	-5365
fordert	-5366
▁großer	-5367
▁carried	-5368
▁agreed	-5369
▁dre	-5370
Fra	-5371
just	-5372
ature	-5373
▁Post	-5374
▁Further	-5375
▁bathroom	-5376
▁Social	-5377
▁supply	-5378
iglich	-5379
▁stra	-5380
▁similar	-5381
icherung	-5382
atell	-5383
▁office	-5384
▁Notwendigkeit	-5385
▁Lösungen	-5386
▁whose	-5387
▁verfüg	-5388
▁nuclear	-5389
▁Zeitpunkt	-5390
▁rat	-5391
loyment	-5392
▁choose	-5393
bie	-5394
▁lik	-5395
will	-5396
wise	-5397
unt	-5398
utt	-5399
imming	-5400
▁subsid	-5401
klus	-5402
spe	-5403
ency	-5404
hoben	-5405
▁asked	-5406
atast	-5407
▁direction	-5408
▁principles	-5409
aschinen	-5410
ape	-5411
spiel	-5412
▁Bud	-5413
▁expl	-5414
▁Leg	-5415
▁Business	-5416
▁pan	-5417
▁Produktion	-5418
▁verg	-5419
▁news	-5420
▁seek	-5421
scht	-5422
artige	-5423
▁anzu	-5424
▁Krieg	-5425
▁exc	-5426
▁commitment	-5427
▁fördern	-5428
▁Ferien	-5429
▁soziale	-5430
buch	-5431
▁schö	-5432
▁influen	-5433
▁shows	-5434
▁six	-5435
▁Miss	-5436
atic	-5437
▁amendment	-5438
action	-5439
▁avoid	-5440
anner	-5441
▁diskut	-5442
▁Develop	-5443
▁gesamte	-5444
ahren	-5445
▁Mich	-5446
▁Maß	-5447
▁commercial	-5448
▁Integration	-5449
ängt	-5450
pose	-5451
▁Berg	-5452
▁Roman	-5453
apt	-5454
▁mal	-5455
▁sex	-5456
▁meinem	-5457
▁Ukraine	-5458
aint	-5459
▁196	-5460
▁Ham	-5461
▁traff	-5462
▁perhaps	-5463
▁tatsächlich	-5464
PE	-5465
▁zunächst	-5466
▁shown	-5467
▁Therefore	-5468
eff	-5469
▁atmosph	-5470
▁Tat	-5471
xis	-5472
▁gehören	-5473
▁künft	-5474
▁Of	-5475
▁Män	-5476
▁Während	-5477
inger	-5478
▁Solid	-5479
▁added	-5480
▁sorgen	-5481
verständlich	-5482
▁obs	-5483
OL	-5484
▁Eigen	-5485
essourcen	-5486
ley	-5487
▁Wein	-5488
fält	-5489
▁Net	-5490
▁tell	-5491
▁Mac	-5492
▁former	-5493
▁innovative	-5494
▁Änderungen	-5495
▁vorhanden	-5496
mitt	-5497
▁Jugend	-5498
▁matters	-5499
▁bi	-5500
▁latest	-5501
▁rein	-5502
En	-5503
ufficient	-5504
▁Wahr	-5505
▁gelegen	-5506
ilen	-5507
▁dynam	-5508
▁gleichen	-5509
umb	-5510
▁hotels	-5511
▁Arg	-5512
▁veröffent	-5513
ends	-5514
▁obtain	-5515
▁größten	-5516
äst	-5517
▁effects	-5518
lös	-5519
usion	-5520
greifen	-5521
▁verstär	-5522
▁stress	-5523
▁came	-5524
▁Dez	-5525
▁ständ	-5526
▁Dan	-5527
▁Micro	-5528
▁Hinter	-5529
▁depend	-5530
▁Log	-5531
▁Rot	-5532
▁erk	-5533
standen	-5534
griffen	-5535
▁Get	-5536
▁Juni	-5537
öffnet	-5538
▁Debian	-5539
▁opportunities	-5540
osp	-5541
ored	-5542
▁geführt	-5543
▁Erfahrung	-5544
40	-5545
▁Pers	-5546
▁entwickeln	-5547
pflich	-5548
▁considered	-5549
▁Sil	-5550
▁thanks	-5551
▁speed	-5552
zub	-5553
▁Golf	-5554
▁Nieder	-5555
▁Zw	-5556
▁aspects	-5557
▁Mai	-5558
▁Herzen	-5559
▁ernst	-5560
▁behind	-5561
ously	-5562
▁Don	-5563
▁promote	-5564
▁eindeut	-5565
akter	-5566
cks	-5567
IL	-5568
▁Beschäftigung	-5569
lass	-5570
▁Fed	-5571
▁Dabei	-5572
▁easily	-5573
▁Initiative	-5574
where	-5575
ja	-5576
▁af	-5577
▁leicht	-5578
ierenden	-5579
IM	-5580
▁sofort	-5581
cript	-5582
▁Mehrheit	-5583
ology	-5584
▁schriftlich	-5585
▁reduce	-5586
▁Balk	-5587
Sch	-5588
owers	-5589
▁condition	-5590
ächt	-5591
▁Sum	-5592
▁schle	-5593
▁lediglich	-5594
ausch	-5595
▁''	-5596
alu	-5597
arent	-5598
RE	-5599
irit	-5600
▁possibility	-5601
itting	-5602
▁phys	-5603
▁reached	-5604
▁accommodation	-5605
▁verstehen	-5606
▁ten	-5607
▁response	-5608
astic	-5609
▁Well	-5610
▁Einführung	-5611
▁size	-5612
▁providing	-5613
▁atmosphere	-5614
okoll	-5615
▁Lauf	-5616
▁materials	-5617
zeugt	-5618
▁wirtschaftliche	-5619
▁Organisation	-5620
▁summer	-5621
▁Konfl	-5622
▁external	-5623
▁setting	-5624
▁König	-5625
ühm	-5626
▁Spain	-5627
▁Program	-5628
▁hohen	-5629
gene	-5630
kraft	-5631
▁remains	-5632
▁review	-5633
▁pressure	-5634
uern	-5635
icy	-5636
▁äußerst	-5637
otes	-5638
unsch	-5639
▁Ru	-5640
▁Stellung	-5641
▁Lat	-5642
▁Weiter	-5643
▁billion	-5644
iedr	-5645
▁Höhe	-5646
▁prepared	-5647
▁hoff	-5648
▁26	-5649
▁Öffent	-5650
▁sustainable	-5651
ieg	-5652
▁Transport	-5653
▁Article	-5654
és	-5655
▁deta	-5656
arily	-5657
▁draft	-5658
▁creation	-5659
▁geschlossen	-5660
uffet	-5661
▁relevant	-5662
iles	-5663
▁exhib	-5664
itzen	-5665
▁Col	-5666
▁somit	-5667
▁Install	-5668
▁Republic	-5669
▁Beschl	-5670
▁erfolgreich	-5671
ausschuss	-5672
▁Aud	-5673
endes	-5674
estens	-5675
▁Umgebung	-5676
▁death	-5677
uel	-5678
ierter	-5679
▁Rev	-5680
▁gewährleisten	-5681
▁prob	-5682
▁decided	-5683
▁Kontakt	-5684
▁capacity	-5685
istics	-5686
▁elekt	-5687
ounts	-5688
iction	-5689
▁gebracht	-5690
▁verpflich	-5691
ki	-5692
▁criter	-5693
▁Amsterdam	-5694
▁terra	-5695
▁coming	-5696
quare	-5697
3.	-5698
▁Loc	-5699
▁submitted	-5700
entlich	-5701
▁beteil	-5702
▁amer	-5703
idel	-5704
▁Oct	-5705
▁Italy	-5706
volle	-5707
▁à	-5708
creen	-5709
▁style	-5710
▁gives	-5711
zone	-5712
▁neigh	-5713
▁British	-5714
▁Familie	-5715
▁dep	-5716
▁prepar	-5717
▁90	-5718
▁video	-5719
li	-5720
zy	-5721
▁Agr	-5722
▁vern	-5723
▁Ents	-5724
▁70	-5725
▁Africa	-5726
▁places	-5727
▁details	-5728
▁anderer	-5729
▁Ratspräsident	-5730
▁Convention	-5731
▁condu	-5732
▁Folgen	-5733
▁decl	-5734
▁closed	-5735
▁Sicht	-5736
▁Vereinbar	-5737
▁balance	-5738
kommens	-5739
ney	-5740
▁gross	-5741
▁erschein	-5742
ibilities	-5743
▁regular	-5744
industrie	-5745
▁Kommunik	-5746
▁Sprache	-5747
▁cause	-5748
▁ausgestattet	-5749
▁Neben	-5750
rehens	-5751
▁suffer	-5752
▁Also	-5753
▁Informations	-5754
▁announ	-5755
▁employe	-5756
▁actions	-5757
iately	-5758
ungss	-5759
▁zweite	-5760
▁300	-5761
▁Komprom	-5762
stellt	-5763
▁Wettbewerb	-5764
▁ähn	-5765
▁concept	-5766
▁Aktion	-5767
▁sites	-5768
▁scheint	-5769
▁registr	-5770
Be	-5771
▁une	-5772
5,	-5773
▁leave	-5774
maßnahmen	-5775
▁fal	-5776
zeuge	-5777
5.	-5778
Te	-5779
▁display	-5780
▁Wohl	-5781
▁December	-5782
▁priority	-5783
▁property	-5784
schnitt	-5785
▁Eing	-5786
▁York	-5787
iture	-5788
▁Cal	-5789
emin	-5790
▁Fehler	-5791
▁Dinge	-5792
▁Gemeins	-5793
▁Western	-5794
▁Booking	-5795
▁train	-5796
▁consumer	-5797
rid	-5798
▁Kommissarin	-5799
▁partner	-5800
▁bestimmte	-5801
ündet	-5802
mented	-5803
▁Open	-5804
▁island	-5805
▁enlargement	-5806
ulgar	-5807
eting	-5808
▁zahlreiche	-5809
▁ww	-5810
▁neuer	-5811
▁obwohl	-5812
resp	-5813
▁Standpunkt	-5814
▁Stad	-5815
sy	-5816
▁Fortschritte	-5817
▁March	-5818
atastrop	-5819
▁www	-5820
rief	-5821
tent	-5822
▁Bekämpfung	-5823
▁register	-5824
roat	-5825
adem	-5826
▁Jed	-5827
▁limited	-5828
▁Erachten	-5829
▁dring	-5830
ghan	-5831
▁funding	-5832
▁describ	-5833
▁Erachtens	-5834
▁architect	-5835
▁erhält	-5836
▁Dom	-5837
▁Kosovo	-5838
inal	-5839
▁Aktivitäten	-5840
▁else	-5841
▁Okt	-5842
▁bestimmten	-5843
▁meines	-5844
▁tragen	-5845
▁discover	-5846
▁Adr	-5847
▁Freiheit	-5848
▁assistance	-5849
terne	-5850
uert	-5851
sprün	-5852
hil	-5853
▁Opt	-5854
▁green	-5855
▁entde	-5856
hindern	-5857
▁allein	-5858
ategories	-5859
ugs	-5860
▁supported	-5861
bus	-5862
▁Spa	-5863
▁effe	-5864
▁movement	-5865
▁Aspe	-5866
▁ground	-5867
setzungen	-5868
mäßig	-5869
▁WTO	-5870
▁Preise	-5871
▁Vertrags	-5872
▁woll	-5873
▁Museum	-5874
▁gewor	-5875
itzer	-5876
▁Af	-5877
▁highl	-5878
wertung	-5879
▁Italien	-5880
▁versuchen	-5881
▁prot	-5882
lav	-5883
▁sport	-5884
iciency	-5885
▁erweit	-5886
geber	-5887
▁rule	-5888
▁virt	-5889
▁vorgesehen	-5890
▁Gefahr	-5891
▁quiet	-5892
son	-5893
▁Dezember	-5894
▁Ke	-5895
'.	-5896
▁Jahrhundert	-5897
▁außerdem	-5898
▁brought	-5899
▁independent	-5900
▁Medien	-5901
▁north	-5902
here	-5903
ournal	-5904
▁IN	-5905
reibung	-5906
▁x	-5907
▁Enter	-5908
▁hohe	-5909
mission	-5910
rec	-5911
ehen	-5912
stitute	-5913
▁transparen	-5914
▁regulations	-5915
▁erheb	-5916
iterranean	-5917
rang	-5918
▁Instrument	-5919
cle	-5920
▁Gruppen	-5921
▁deep	-5922
legenheiten	-5923
etimes	-5924
▁Nur	-5925
▁ko	-5926
▁forms	-5927
▁dadurch	-5928
etary	-5929
▁solchen	-5930
▁vorlie	-5931
▁erster	-5932
▁Staat	-5933
selves	-5934
▁variety	-5935
▁Überein	-5936
▁einzige	-5937
▁pleased	-5938
▁largest	-5939
chsel	-5940
▁bestät	-5941
▁creating	-5942
▁Stelle	-5943
▁sagte	-5944
▁construction	-5945
PL	-5946
▁Party	-5947
3,	-5948
ader	-5949
bert	-5950
▁restaurants	-5951
▁fix	-5952
▁mobile	-5953
▁29	-5954
▁fig	-5955
▁foot	-5956
altungs	-5957
▁limit	-5958
page	-5959
▁unterst	-5960
gesellschaft	-5961
▁hor	-5962
▁ord	-5963
▁vergangenen	-5964
ützt	-5965
▁französ	-5966
▁zweiten	-5967
▁jün	-5968
▁Stunden	-5969
▁Di	-5970
▁contr	-5971
▁insgesamt	-5972
stein	-5973
▁wid	-5974
▁January	-5975
▁airport	-5976
▁expla	-5977
merksamkeit	-5978
▁message	-5979
▁became	-5980
unternehmen	-5981
ategorien	-5982
▁apartment	-5983
▁Privat	-5984
die	-5985
▁Last	-5986
▁repe	-5987
rechend	-5988
anischen	-5989
▁friends	-5990
▁renov	-5991
▁King	-5992
möglichkeiten	-5993
▁Oper	-5994
▁Bestimmungen	-5995
▁discussion	-5996
▁bein	-5997
▁Unterk	-5998
▁Benutzer	-5999
▁Aufmerksamkeit	-6000
Pl	-6001
▁hy	-6002
uis	-6003
▁Bildung	-6004
▁stability	-6005
▁purpose	-6006
▁aufgenommen	-6007
▁1998	-6008
wa	-6009
▁produced	-6010
▁exec	-6011
▁ways	-6012
▁instead	-6013
bewertungen	-6014
▁Verkehrs	-6015
▁thous	-6016
▁host	-6017
Off	-6018
▁Basis	-6019
ilos	-6020
/9	-6021
▁effort	-6022
ero	-6023
▁Italian	-6024
4.	-6025
▁Erklärung	-6026
▁conference	-6027
▁October	-6028
▁gemäß	-6029
▁lic	-6030
▁chem	-6031
ena	-6032
ades	-6033
stag	-6034
▁Det	-6035
▁Har	-6036
▁safe	-6037
▁Entscheidungen	-6038
▁Today	-6039
porate	-6040
▁relationship	-6041
▁obvious	-6042
▁ändern	-6043
besch	-6044
▁Exper	-6045
▁alten	-6046
igungen	-6047
isters	-6048
▁study	-6049
▁interesting	-6050
▁Punkte	-6051
▁measure	-6052
▁sus	-6053
▁Sl	-6054
räfte	-6055
ürf	-6056
▁fall	-6057
yond	-6058
▁steps	-6059
▁started	-6060
▁gee	-6061
▁Down	-6062
▁Investitionen	-6063
▁konzentr	-6064
ugg	-6065
kont	-6066
▁Jo	-6067
▁rich	-6068
▁allowed	-6069
cement	-6070
ägt	-6071
cker	-6072
▁genießen	-6073
coming	-6074
▁Ged	-6075
lare	-6076
▁Alt	-6077
polit	-6078
arenz	-6079
▁board	-6080
▁März	-6081
▁2002	-6082
▁produce	-6083
▁determin	-6084
aft	-6085
ühungen	-6086
ivity	-6087
ritts	-6088
▁san	-6089
▁task	-6090
falt	-6091
länd	-6092
▁Schweiz	-6093
▁hous	-6094
▁Ansatz	-6095
▁Unternehmens	-6096
▁dat	-6097
▁Server	-6098
▁mor	-6099
▁Oktober	-6100
anlage	-6101
bor	-6102
▁Flughafen	-6103
conomic	-6104
▁hervorra	-6105
▁Anforderungen	-6106
▁2001	-6107
isp	-6108
▁Camp	-6109
▁source	-6110
▁Organ	-6111
“,	-6112
▁Städ	-6113
▁Industr	-6114
▁purs	-6115
▁einschließlich	-6116
altet	-6117
▁Küche	-6118
▁keiner	-6119
▁activity	-6120
overty	-6121
▁tä	-6122
▁div	-6123
▁Prü	-6124
ämt	-6125
kosten	-6126
ronic	-6127
angt	-6128
▁kit	-6129
▁Film	-6130
soft	-6131
▁Grenzen	-6132
▁regards	-6133
▁vertreten	-6134
Mit	-6135
▁medium	-6136
▁disp	-6137
▁status	-6138
▁Star	-6139
▁Abend	-6140
▁Gal	-6141
▁dise	-6142
▁Every	-6143
▁Öffentlichkeit	-6144
▁mem	-6145
▁operation	-6146
▁accord	-6147
▁Ter	-6148
▁Zeich	-6149
▁procedures	-6150
▁schließlich	-6151
prises	-6152
▁compromise	-6153
▁häufig	-6154
▁liberal	-6155
▁Berichts	-6156
▁morgen	-6157
▁instrument	-6158
▁Development	-6159
▁Pap	-6160
▁Anwend	-6161
.)	-6162
▁Services	-6163
legung	-6164
utter	-6165
▁Kan	-6166
▁erwarten	-6167
▁exact	-6168
▁compon	-6169
▁Gesundheits	-6170
▁fishing	-6171
dra	-6172
▁benefits	-6173
▁fehl	-6174
ded	-6175
▁Bundes	-6176
▁Mart	-6177
▁beschäft	-6178
see	-6179
▁Diskussion	-6180
ienten	-6181
▁damage	-6182
▁pen	-6183
▁Wider	-6184
▁überw	-6185
▁betroffen	-6186
▁gain	-6187
▁contribution	-6188
letzt	-6189
▁leisten	-6190
▁Stär	-6191
▁eingesetzt	-6192
▁Juli	-6193
annen	-6194
FR	-6195
▁Rights	-6196
▁konnten	-6197
▁Bereiche	-6198
oker	-6199
▁niedr	-6200
▁Vorschriften	-6201
ibil	-6202
▁legislative	-6203
itude	-6204
▁Cap	-6205
▁Bilder	-6206
▁fisher	-6207
▁Präsidenten	-6208
ateral	-6209
▁During	-6210
▁Ele	-6211
▁conven	-6212
▁distance	-6213
EP	-6214
dienst	-6215
▁village	-6216
ya	-6217
enntnis	-6218
▁Ed	-6219
▁Sm	-6220
▁Tex	-6221
▁zentr	-6222
▁wenige	-6223
Fraktion	-6224
Ar	-6225
▁eigentlich	-6226
lines	-6227
▁Landwirtschaft	-6228
▁Gip	-6229
▁accep	-6230
▁dut	-6231
▁appe	-6232
▁höher	-6233
▁leider	-6234
▁Em	-6235
▁brit	-6236
oder	-6237
ifik	-6238
▁Transparenz	-6239
▁Ist	-6240
▁Site	-6241
▁provisions	-6242
▁geworden	-6243
mö	-6244
▁written	-6245
▁launch	-6246
▁instruments	-6247
▁got	-6248
▁Tagesordnung	-6249
▁regel	-6250
lichkeiten	-6251
▁Real	-6252
▁klein	-6253
▁forder	-6254
▁violence	-6255
▁historical	-6256
▁Neu	-6257
▁won	-6258
▁Je	-6259
forderung	-6260
▁Prinzip	-6261
▁giving	-6262
▁Many	-6263
▁Spanish	-6264
idge	-6265
▁Hung	-6266
▁Democ	-6267
▁lower	-6268
▁aktuellen	-6269
▁prefer	-6270
▁comprehens	-6271
▁Arbeitnehmer	-6272
▁eleg	-6273
▁Erzeug	-6274
▁statement	-6275
▁threat	-6276
▁Anfrage	-6277
▁Inn	-6278
freund	-6279
▁minor	-6280
▁Nationen	-6281
orgt	-6282
▁Kur	-6283
▁durchgeführt	-6284
▁loss	-6285
▁documents	-6286
▁Mult	-6287
▁ourselves	-6288
orgung	-6289
▁path	-6290
▁firm	-6291
NG	-6292
▁Linux	-6293
▁criteria	-6294
▁Ere	-6295
▁benötigen	-6296
▁west	-6297
▁base	-6298
▁relation	-6299
▁CO	-6300
wesen	-6301
▁genommen	-6302
▁Sommer	-6303
80	-6304
▁Belg	-6305
▁Empfehl	-6306
rats	-6307
itial	-6308
▁Afghan	-6309
▁structure	-6310
frastruct	-6311
fun	-6312
▁evalu	-6313
▁types	-6314
▁unmittel	-6315
works	-6316
▁Systems	-6317
cret	-6318
uche	-6319
▁Ost	-6320
ierende	-6321
ls	-6322
▁Veränder	-6323
▁Portugal	-6324
▁fell	-6325
▁ihres	-6326
▁wichtiger	-6327
▁July	-6328
▁She	-6329
▁Iraq	-6330
iete	-6331
▁labour	-6332
▁mountain	-6333
zehn	-6334
▁Computer	-6335
▁gas	-6336
▁bra	-6337
▁Villa	-6338
ira	-6339
ograf	-6340
ground	-6341
▁Sign	-6342
▁worth	-6343
▁suchen	-6344
▁depart	-6345
leb	-6346
▁freund	-6347
▁Januar	-6348
▁Schwier	-6349
▁berühm	-6350
▁4.	-6351
▁highest	-6352
▁constant	-6353
zwe	-6354
▁kannst	-6355
▁Auftrag	-6356
wind	-6357
▁Cost	-6358
▁edit	-6359
▁immediately	-6360
ato	-6361
▁interpre	-6362
▁challenges	-6363
ört	-6364
▁perfe	-6365
ought	-6366
▁angesichts	-6367
bin	-6368
▁word	-6369
▁Although	-6370
uls	-6371
▁Ta	-6372
▁Firma	-6373
▁Auto	-6374
▁distribution	-6375
▁gran	-6376
ummer	-6377
▁observ	-6378
▁ult	-6379
▁Zentral	-6380
▁Java	-6381
urance	-6382
▁Metho	-6383
▁cy	-6384
▁film	-6385
▁agenda	-6386
▁langfrist	-6387
fordern	-6388
▁grat	-6389
enew	-6390
▁wine	-6391
▁kennen	-6392
▁stock	-6393
leitet	-6394
▁Gründen	-6395
aign	-6396
▁Projekte	-6397
teuer	-6398
▁section	-6399
▁Sinne	-6400
▁Untersuch	-6401
▁gefunden	-6402
▁Free	-6403
▁late	-6404
ücken	-6405
Office	-6406
▁dein	-6407
4,	-6408
▁useful	-6409
▁elements	-6410
▁employees	-6411
house	-6412
▁finally	-6413
front	-6414
▁Rede	-6415
drücklich	-6416
zusch	-6417
head	-6418
▁alternative	-6419
▁Meine	-6420
▁europäischer	-6421
▁integrated	-6422
iker	-6423
▁drive	-6424
▁helpful	-6425
anted	-6426
▁Heute	-6427
ieht	-6428
▁weder	-6429
mosphäre	-6430
▁University	-6431
ängen	-6432
▁emb	-6433
▁Kredit	-6434
▁Tradition	-6435
▁transparency	-6436
▁Innen	-6437
▁ursprün	-6438
▁gele	-6439
▁mis	-6440
▁zeit	-6441
zeichnung	-6442
elten	-6443
▁parking	-6444
wortern	-6445
▁Hel	-6446
▁Aufenthalt	-6447
▁geschaffen	-6448
▁Furthermore	-6449
▁Lebensmittel	-6450
scheinlich	-6451
ST	-6452
▁Sache	-6453
▁emiss	-6454
▁Bulgar	-6455
ford	-6456
▁Vorsitz	-6457
▁affect	-6458
▁numerous	-6459
▁schl	-6460
▁bad	-6461
▁vorge	-6462
zt	-6463
▁poverty	-6464
ünde	-6465
▁tools	-6466
▁Beginn	-6467
eks	-6468
▁consequences	-6469
▁erneut	-6470
▁reality	-6471
▁Bemühungen	-6472
▁verm	-6473
▁unemp	-6474
▁eher	-6475
▁ign	-6476
asion	-6477
▁Mobil	-6478
▁consist	-6479
▁Regeln	-6480
orning	-6481
▁Milliar	-6482
▁Your	-6483
▁equal	-6484
12	-6485
▁Koh	-6486
▁Armut	-6487
▁Auffassung	-6488
ammlung	-6489
▁bezüglich	-6490
äte	-6491
cription	-6492
▁ski	-6493
▁halte	-6494
yer	-6495
▁applied	-6496
▁round	-6497
ücht	-6498
▁elections	-6499
▁Centre	-6500
▁1997	-6501
▁hom	-6502
▁processes	-6503
▁weak	-6504
▁sieht	-6505
▁bringt	-6506
▁offering	-6507
▁öffentliche	-6508
▁treffen	-6509
▁reading	-6510
richten	-6511
▁überprü	-6512
▁teach	-6513
izin	-6514
▁Flor	-6515
▁daily	-6516
▁begrüße	-6517
▁crucial	-6518
▁sonst	-6519
▁Mann	-6520
ais	-6521
folge	-6522
▁coast	-6523
bezogen	-6524
▁bem	-6525
▁conflict	-6526
aktion	-6527
▁apartments	-6528
▁payment	-6529
no	-6530
▁har	-6531
▁beitragen	-6532
gy	-6533
▁mut	-6534
kom	-6535
back	-6536
ogle	-6537
▁tim	-6538
achtung	-6539
park	-6540
ral	-6541
▁Bahn	-6542
phone	-6543
EM	-6544
OT	-6545
▁ziehen	-6546
▁DVD	-6547
▁distr	-6548
engen	-6549
▁jüng	-6550
▁Solidar	-6551
▁analysis	-6552
▁Are	-6553
▁Ereign	-6554
▁drink	-6555
▁beyond	-6556
▁perman	-6557
legation	-6558
▁Term	-6559
zuführen	-6560
▁diejenigen	-6561
▁übrigen	-6562
lim	-6563
▁zehn	-6564
sprozess	-6565
▁Straßen	-6566
ören	-6567
▁erfahren	-6568
▁Nr	-6569
▁Gast	-6570
▁requires	-6571
▁Präsidentschaft	-6572
▁pal	-6573
afe	-6574
▁offered	-6575
▁saying	-6576
anging	-6577
▁Mos	-6578
▁legit	-6579
▁entsprechenden	-6580
▁phot	-6581
sprü	-6582
▁wissenschaft	-6583
▁paid	-6584
▁solidarity	-6585
Un	-6586
▁Folge	-6587
▁kur	-6588
▁goes	-6589
▁hil	-6590
▁verhindern	-6591
▁Even	-6592
▁=	-6593
▁colleagues	-6594
estic	-6595
wart	-6596
▁Linie	-6597
▁Beteil	-6598
▁Fällen	-6599
wser	-6600
ufe	-6601
▁plant	-6602
▁humanit	-6603
▁infrastruct	-6604
spricht	-6605
▁thought	-6606
▁happy	-6607
▁Ressourcen	-6608
iveau	-6609
▁früher	-6610
▁Gas	-6611
vere	-6612
▁Nachbar	-6613
▁hinzu	-6614
▁Aufgaben	-6615
rü	-6616
ünstler	-6617
▁Monaten	-6618
fühl	-6619
losen	-6620
entur	-6621
▁forces	-6622
▁practical	-6623
based	-6624
othe	-6625
hilfe	-6626
hold	-6627
▁ideas	-6628
▁2,	-6629
schlag	-6630
obby	-6631
schließen	-6632
▁sufficient	-6633
▁Bedürf	-6634
▁Spezial	-6635
▁hätten	-6636
▁undert	-6637
▁kil	-6638
leistung	-6639
▁spirit	-6640
▁vergessen	-6641
▁Kor	-6642
▁Gott	-6643
▁dan	-6644
ola	-6645
▁Restaurants	-6646
▁persons	-6647
▁unbe	-6648
frastruktur	-6649
▁Änderung	-6650
ye	-6651
▁advantage	-6652
▁ausgezeich	-6653
▁exception	-6654
▁getan	-6655
▁Winter	-6656
▁van	-6657
ares	-6658
view	-6659
▁Vertreter	-6660
vors	-6661
▁Mediterranean	-6662
PS	-6663
▁illegal	-6664
▁Sitzung	-6665
▁growing	-6666
hesion	-6667
▁ban	-6668
▁präsent	-6669
▁Ven	-6670
▁Natürlich	-6671
iability	-6672
fo	-6673
▁spee	-6674
öße	-6675
▁Mer	-6676
▁krit	-6677
UR	-6678
▁Agrar	-6679
▁Wunsch	-6680
▁pie	-6681
▁erfolgt	-6682
ula	-6683
strumente	-6684
DF	-6685
▁Bürgern	-6686
▁Verl	-6687
ifel	-6688
▁vorher	-6689
▁behandelt	-6690
▁secure	-6691
▁historic	-6692
▁frequ	-6693
▁Ba	-6694
▁Test	-6695
▁modified	-6696
angeb	-6697
craft	-6698
cape	-6699
sych	-6700
▁doubt	-6701
▁genannten	-6702
▁congratulate	-6703
▁weeks	-6704
▁paar	-6705
▁Security	-6706
IA	-6707
programm	-6708
▁implemented	-6709
▁Las	-6710
▁Tagen	-6711
▁clients	-6712
▁nimmt	-6713
70	-6714
▁tomor	-6715
urb	-6716
▁las	-6717
▁minimum	-6718
▁sales	-6719
▁anderem	-6720
▁»	-6721
▁Ol	-6722
▁shopping	-6723
▁Behandlung	-6724
heben	-6725
ocol	-6726
▁tomorrow	-6727
▁Technologie	-6728
tellten	-6729
▁Public	-6730
ischem	-6731
▁reich	-6732
▁waste	-6733
▁Microsoft	-6734
▁Vergangen	-6735
▁partnership	-6736
▁Video	-6737
▁renew	-6738
▁5.	-6739
▁wr	-6740
▁versucht	-6741
▁Palest	-6742
üge	-6743
▁organisations	-6744
▁hear	-6745
esellschaften	-6746
▁anti	-6747
▁lives	-6748
▁starting	-6749
▁Aller	-6750
ione	-6751
▁Eigent	-6752
▁bedroom	-6753
ollar	-6754
▁comprehensive	-6755
▁Dritt	-6756
▁published	-6757
▁syn	-6758
▁Werte	-6759
-2	-6760
▁Völk	-6761
zielle	-6762
▁While	-6763
▁campaign	-6764
▁ausreich	-6765
änge	-6766
▁rapid	-6767
cia	-6768
Europ	-6769
▁warum	-6770
▁Human	-6771
▁Atmosphäre	-6772
ilosoph	-6773
▁Republik	-6774
▁Hal	-6775
▁lines	-6776
▁mitt	-6777
ordination	-6778
▁efficiency	-6779
icken	-6780
▁uner	-6781
▁operating	-6782
▁ready	-6783
hafte	-6784
▁sechs	-6785
▁besondere	-6786
▁क	-6787
▁Erd	-6788
▁Cop	-6789
gewiesen	-6790
▁Betrieb	-6791
▁gewesen	-6792
wün	-6793
ürger	-6794
▁Ak	-6795
▁restr	-6796
▁offiz	-6797
▁select	-6798
▁ol	-6799
▁caused	-6800
▁reduction	-6801
schö	-6802
ibe	-6803
▁Gebäude	-6804
▁Stock	-6805
▁Erfahrungen	-6806
▁Gest	-6807
6,	-6808
▁End	-6809
▁options	-6810
▁Bot	-6811
▁größer	-6812
▁überhaupt	-6813
▁Finanzierung	-6814
▁morning	-6815
▁machine	-6816
6.	-6817
▁meaning	-6818
▁Austria	-6819
bas	-6820
▁Hy	-6821
▁günst	-6822
▁Val	-6823
▁mü	-6824
▁Altern	-6825
ategie	-6826
▁unbed	-6827
▁Inhalt	-6828
▁35	-6829
▁staat	-6830
atform	-6831
vis	-6832
▁194	-6833
igation	-6834
▁monitoring	-6835
oz	-6836
▁Mass	-6837
pective	-6838
ungsver	-6839
▁reference	-6840
▁Anstr	-6841
▁server	-6842
schreit	-6843
▁folgen	-6844
▁Bürgerinnen	-6845
gruppe	-6846
▁Prozent	-6847
▁erfüllen	-6848
theless	-6849
standing	-6850
▁erklärt	-6851
▁Directive	-6852
▁Kn	-6853
▁technologies	-6854
ichert	-6855
▁circum	-6856
▁maximum	-6857
SS	-6858
▁jen	-6859
▁begin	-6860
▁export	-6861
pool	-6862
▁Minder	-6863
▁worldwide	-6864
▁ful	-6865
nungen	-6866
▁anything	-6867
▁Amendment	-6868
oon	-6869
▁Forschungs	-6870
▁Grand	-6871
▁fordern	-6872
▁pain	-6873
▁Vergangenheit	-6874
▁beant	-6875
altungen	-6876
▁wach	-6877
▁Gerichts	-6878
▁recon	-6879
▁Ess	-6880
ulated	-6881
▁größte	-6882
):	-6883
▁Nacht	-6884
▁began	-6885
▁sports	-6886
▁street	-6887
▁challenge	-6888
▁Fäh	-6889
▁sav	-6890
book	-6891
▁(2	-6892
▁mensch	-6893
▁players	-6894
▁sometimes	-6895
▁probably	-6896
▁urg	-6897
▁border	-6898
iell	-6899
▁Lassen	-6900
▁chance	-6901
pack	-6902
▁bur	-6903
▁Gef	-6904
ius	-6905
▁Islam	-6906
fläche	-6907
▁richtige	-6908
▁charm	-6909
▁counter	-6910
▁ded	-6911
▁Center	-6912
▁zahlreichen	-6913
izienz	-6914
▁sal	-6915
▁Protokoll	-6916
▁pictures	-6917
▁Chinese	-6918
▁berücksichtigt	-6919
We	-6920
izing	-6921
▁relating	-6922
▁glo	-6923
alyse	-6924
▁Gel	-6925
▁Viele	-6926
▁gerecht	-6927
konom	-6928
▁Pet	-6929
11	-6930
▁Initi	-6931
▁Verteid	-6932
▁entsprechend	-6933
itation	-6934
ichern	-6935
▁Del	-6936
ällt	-6937
itch	-6938
▁Herz	-6939
atterin	-6940
stitutional	-6941
▁critic	-6942
▁jeweiligen	-6943
verage	-6944
▁Mand	-6945
▁eingeb	-6946
▁languages	-6947
▁advert	-6948
▁initial	-6949
▁swimming	-6950
mus	-6951
▁usw	-6952
▁stimmen	-6953
▁Airport	-6954
ret	-6955
utive	-6956
▁Praxis	-6957
▁respond	-6958
▁remov	-6959
▁Dat	-6960
▁Spanien	-6961
▁farmers	-6962
▁ehem	-6963
▁bill	-6964
izes	-6965
▁extent	-6966
▁sämt	-6967
▁Start	-6968
ächen	-6969
▁accordance	-6970
▁beträ	-6971
▁Hoff	-6972
▁Zweitens	-6973
imat	-6974
▁decor	-6975
ktive	-6976
▁welches	-6977
▁terrorism	-6978
iding	-6979
▁interested	-6980
▁Vergleich	-6981
Die	-6982
▁Id	-6983
board	-6984
▁transparent	-6985
▁lands	-6986
sam	-6987
▁Conference	-6988
▁seines	-6989
▁ones	-6990
▁Terrorismus	-6991
▁email	-6992
▁Bu	-6993
oke	-6994
zeiten	-6995
▁wählen	-6996
▁Doppel	-6997
▁Aspekte	-6998
▁bald	-6999
▁ris	-7000
▁methods	-7001
▁verpflichtet	-7002
▁Schritte	-7003
trägen	-7004
▁voting	-7005
▁stets	-7006
▁Dav	-7007
legten	-7008
▁Moreover	-7009
▁historischen	-7010
itten	-7011
karte	-7012
▁Beruf	-7013
LA	-7014
▁PH	-7015
▁Lang	-7016
▁Firmen	-7017
▁sectors	-7018
losigkeit	-7019
krise	-7020
grenz	-7021
▁Tier	-7022
▁modernen	-7023
abkommen	-7024
▁Menschenrechts	-7025
”.	-7026
▁Vertrauen	-7027
ichtlich	-7028
enze	-7029
▁apprec	-7030
sc	-7031
ränkt	-7032
▁Eas	-7033
vollen	-7034
▁genug	-7035
▁concentr	-7036
▁tourist	-7037
▁kam	-7038
▁außerhalb	-7039
▁verantwortlich	-7040
▁wanted	-7041
figur	-7042
enh	-7043
▁rele	-7044
▁arrange	-7045
▁banks	-7046
▁candid	-7047
▁Bal	-7048
▁businesses	-7049
▁cast	-7050
▁befür	-7051
▁Chance	-7052
▁symbol	-7053
▁einheit	-7054
▁cert	-7055
▁Opfer	-7056
▁games	-7057
▁Google	-7058
▁scientific	-7059
▁adopt	-7060
▁selection	-7061
▁Gran	-7062
▁enorm	-7063
▁Kapital	-7064
▁Ac	-7065
▁valid	-7066
▁release	-7067
▁jähr	-7068
reland	-7069
▁Green	-7070
▁despite	-7071
▁Waren	-7072
▁Tor	-7073
▁motor	-7074
▁Mc	-7075
▁Tem	-7076
▁influence	-7077
▁Rats	-7078
▁betreff	-7079
ado	-7080
▁reflect	-7081
▁heutigen	-7082
▁Frankf	-7083
▁zumindest	-7084
▁stärker	-7085
▁Milliarden	-7086
ämpfen	-7087
▁NAT	-7088
▁11.	-7089
IV	-7090
▁lies	-7091
▁Hil	-7092
▁lost	-7093
▁verkauf	-7094
ifically	-7095
Pr	-7096
▁slow	-7097
▁Zivil	-7098
▁verab	-7099
▁anders	-7100
CO	-7101
▁schützen	-7102
▁UK	-7103
▁Spieler	-7104
künft	-7105
▁powers	-7106
▁walking	-7107
▁Parteien	-7108
▁Gene	-7109
▁Berat	-7110
▁Russian	-7111
▁upd	-7112
barer	-7113
▁Garten	-7114
▁Allerdings	-7115
▁Sen	-7116
▁les	-7117
▁Grie	-7118
wel	-7119
▁Dazu	-7120
▁expert	-7121
▁fine	-7122
▁blo	-7123
▁visitors	-7124
zul	-7125
werte	-7126
▁Est	-7127
▁vollständig	-7128
▁zuständ	-7129
▁tät	-7130
raten	-7131
▁Dann	-7132
▁John	-7133
▁komp	-7134
SP	-7135
iant	-7136
▁coup	-7137
▁Swiss	-7138
▁Angelegenheit	-7139
tempt	-7140
▁Regierungs	-7141
▁competit	-7142
ym	-7143
▁Drit	-7144
▁folgt	-7145
▁Ireland	-7146
▁Prem	-7147
▁exerc	-7148
lose	-7149
▁trying	-7150
▁elegant	-7151
▁SM	-7152
atalog	-7153
affe	-7154
▁Download	-7155
meer	-7156
▁raised	-7157
{{	-7158
▁Einige	-7159
▁fant	-7160
▁TH	-7161
chtet	-7162
hers	-7163
▁Nun	-7164
▁lay	-7165
▁erwartet	-7166
▁images	-7167
▁separate	-7168
▁AC	-7169
▁Schwierigkeiten	-7170
quem	-7171
▁Ord	-7172
▁substant	-7173
▁persönlichen	-7174
akte	-7175
▁remember	-7176
▁accepted	-7177
▁heav	-7178
poses	-7179
▁innovation	-7180
▁insp	-7181
▁annual	-7182
▁deutschen	-7183
how	-7184
▁bessere	-7185
▁unten	-7186
▁genu	-7187
▁gemein	-7188
▁erlaubt	-7189
▁demands	-7190
▁verurs	-7191
▁Anges	-7192
tritt	-7193
zusetzen	-7194
▁absolutely	-7195
ga	-7196
ruption	-7197
▁technischen	-7198
▁Mess	-7199
fence	-7200
▁Obwohl	-7201
ids	-7202
nungs	-7203
▁Hinsicht	-7204
▁Play	-7205
▁privaten	-7206
▁manufactur	-7207
▁claim	-7208
▁effiz	-7209
gehend	-7210
▁borders	-7211
▁Soll	-7212
ologie	-7213
▁ausschließlich	-7214
tere	-7215
▁prü	-7216
▁Falls	-7217
▁strategic	-7218
handel	-7219
anda	-7220
hotel	-7221
bit	-7222
hältnis	-7223
▁Einwander	-7224
▁Entschließungs	-7225
icket	-7226
gesetz	-7227
▁changed	-7228
▁«	-7229
hilfen	-7230
▁erinnern	-7231
▁overall	-7232
▁vital	-7233
▁zukünft	-7234
▁Flex	-7235
mel	-7236
▁Gespr	-7237
▁gek	-7238
▁club	-7239
▁Secondly	-7240
▁crimin	-7241
▁Landwir	-7242
▁Generation	-7243
▁Voll	-7244
▁Einfluss	-7245
▁Angelegenheiten	-7246
erkennung	-7247
▁angemessen	-7248
▁übernehmen	-7249
enk	-7250
▁affe	-7251
▁Ihres	-7252
▁anerk	-7253
▁trip	-7254
▁Produktions	-7255
▁fields	-7256
▁getroffen	-7257
indungen	-7258
▁195	-7259
▁Only	-7260
iertel	-7261
▁kitchen	-7262
ziert	-7263
▁Sam	-7264
▁Modell	-7265
▁listen	-7266
▁Afghanistan	-7267
▁wrong	-7268
▁).	-7269
▁Annahme	-7270
▁offens	-7271
▁dipl	-7272
attle	-7273
▁honour	-7274
▁Gold	-7275
itts	-7276
▁Trotz	-7277
▁negative	-7278
▁Pla	-7279
▁Stellen	-7280
▁jun	-7281
ätzlich	-7282
ighted	-7283
lemente	-7284
▁zudem	-7285
▁folgenden	-7286
mand	-7287
▁Einrichtung	-7288
ielt	-7289
▁fire	-7290
▁Arbeitsplätze	-7291
Hotel	-7292
gült	-7293
▁Sonder	-7294
▁ehemal	-7295
▁beginnen	-7296
sätze	-7297
engungen	-7298
▁Supp	-7299
▁Its	-7300
▁setzt	-7301
▁season	-7302
▁worked	-7303
abr	-7304
last	-7305
▁yourself	-7306
▁Prä	-7307
▁sil	-7308
▁target	-7309
immern	-7310
▁player	-7311
5-0	-7312
sprechen	-7313
▁gesehen	-7314
▁spezif	-7315
▁ability	-7316
▁begrüßen	-7317
▁track	-7318
',	-7319
aries	-7320
▁namely	-7321
▁allgemeinen	-7322
▁wiederhol	-7323
▁reforms	-7324
▁Tal	-7325
gruppen	-7326
▁Cy	-7327
▁Krank	-7328
zulegen	-7329
▁Mitte	-7330
▁calls	-7331
▁kaum	-7332
▁automatisch	-7333
15	-7334
star	-7335
omb	-7336
▁Liberal	-7337
▁simpl	-7338
ulations	-7339
▁Ang	-7340
▁menu	-7341
▁goal	-7342
▁gesetz	-7343
▁initiatives	-7344
▁Indeed	-7345
▁bestimmt	-7346
wan	-7347
9,	-7348
amin	-7349
ördert	-7350
▁Österreich	-7351
▁Georg	-7352
▁angeboten	-7353
rogen	-7354
▁cities	-7355
hood	-7356
▁vertra	-7357
aters	-7358
▁representatives	-7359
▁intended	-7360
▁NATO	-7361
▁italien	-7362
▁increasingly	-7363
QL	-7364
▁currency	-7365
▁Sü	-7366
lymp	-7367
▁länger	-7368
eignet	-7369
stoffe	-7370
▁proceed	-7371
▁angene	-7372
▁evening	-7373
▁flexible	-7374
▁plans	-7375
vorsitz	-7376
▁award	-7377
▁bitten	-7378
▁natür	-7379
zeichen	-7380
ildet	-7381
▁alone	-7382
▁heard	-7383
▁fear	-7384
bezieh	-7385
▁Verwaltung	-7386
bum	-7387
ystemen	-7388
▁tal	-7389
▁Wo	-7390
▁Solidarität	-7391
wes	-7392
isely	-7393
▁beide	-7394
▁letzte	-7395
▁committed	-7396
▁Wissenschaft	-7397
▁Verfassung	-7398
▁Eind	-7399
▁cell	-7400
▁deine	-7401
▁eindeutig	-7402
/0	-7403
tert	-7404
▁bir	-7405
▁processing	-7406
▁endlich	-7407
▁expressed	-7408
inens	-7409
▁Glaub	-7410
8,	-7411
▁Ausgang	-7412
IF	-7413
uses	-7414
▁darstellt	-7415
iente	-7416
▁News	-7417
▁150	-7418
▁Hostels	-7419
▁Konzept	-7420
▁photo	-7421
brit	-7422
bringen	-7423
auern	-7424
▁dringend	-7425
▁Mün	-7426
▁sinn	-7427
....	-7428
▁Hause	-7429
▁occup	-7430
ita	-7431
▁Erk	-7432
grams	-7433
▁datab	-7434
}}	-7435
▁fresh	-7436
▁running	-7437
▁zweit	-7438
▁Erstens	-7439
▁accession	-7440
▁verme	-7441
acc	-7442
▁reag	-7443
▁autom	-7444
▁restrict	-7445
▁entgegen	-7446
▁talking	-7447
▁traffic	-7448
used	-7449
system	-7450
▁länd	-7451
▁placed	-7452
▁Griechen	-7453
▁Schwer	-7454
nel	-7455
▁cas	-7456
▁falls	-7457
▁jem	-7458
▁spect	-7459
cluded	-7460
▁Mex	-7461
▁bemü	-7462
ories	-7463
▁bege	-7464
▁mainly	-7465
▁hot	-7466
kaufs	-7467
▁terrace	-7468
anc	-7469
ruit	-7470
▁Leute	-7471
▁Antrag	-7472
“.	-7473
▁größere	-7474
ifizierung	-7475
ustausch	-7476
▁love	-7477
▁Freiz	-7478
▁Falle	-7479
▁families	-7480
ückt	-7481
▁students	-7482
▁Gesamt	-7483
▁improved	-7484
reise	-7485
▁element	-7486
ibly	-7487
▁bezahl	-7488
▁regime	-7489
▁rise	-7490
▁planning	-7491
gere	-7492
▁rom	-7493
▁stabil	-7494
▁Slo	-7495
▁Cr	-7496
▁Agre	-7497
▁benutzt	-7498
▁Amb	-7499
ples	-7500
▁ethn	-7501
▁Verhalten	-7502
▁debt	-7503
▁Nachfol	-7504
▁umfang	-7505
▁fas	-7506
für	-7507
▁Anstrengungen	-7508
hrte	-7509
itzt	-7510
▁emissions	-7511
▁1990	-7512
▁brand	-7513
▁anc	-7514
▁komfort	-7515
pliz	-7516
angs	-7517
▁buy	-7518
las	-7519
di	-7520
▁Kompromiss	-7521
▁feature	-7522
set	-7523
9.	-7524
▁comments	-7525
▁erkennen	-7526
gebiet	-7527
▁zusätzliche	-7528
▁Dub	-7529
igran	-7530
▁genutzt	-7531
▁infrastructure	-7532
▁irgend	-7533
▁opening	-7534
▁Bade	-7535
▁confirm	-7536
▁automatically	-7537
▁People	-7538
▁Verpflichtungen	-7539
▁Organisationen	-7540
▁remind	-7541
▁approved	-7542
quate	-7543
▁decide	-7544
▁structural	-7545
▁4-	-7546
zeigen	-7547
endence	-7548
▁reduced	-7549
uly	-7550
▁kürz	-7551
▁bilden	-7552
▁moderne	-7553
▁unbedingt	-7554
bü	-7555
idelines	-7556
▁affected	-7557
▁Idee	-7558
▁Nations	-7559
ION	-7560
glied	-7561
▁belieb	-7562
▁attempt	-7563
▁Zustimmung	-7564
rieb	-7565
etten	-7566
▁tit	-7567
▁suitable	-7568
▁hol	-7569
▁unemployment	-7570
itory	-7571
ils	-7572
▁mill	-7573
▁globalen	-7574
▁überzeugt	-7575
aschine	-7576
▁cohesion	-7577
▁militär	-7578
▁conclusion	-7579
▁box	-7580
ores	-7581
EG	-7582
▁gegr	-7583
▁genannt	-7584
▁confidence	-7585
▁Tätigkeit	-7586
▁Bi	-7587
ifying	-7588
▁Kauf	-7589
▁Acht	-7590
▁circumstances	-7591
bourg	-7592
▁Son	-7593
▁Ausschuß	-7594
▁cele	-7595
▁touch	-7596
▁eingehen	-7597
▁collection	-7598
▁entspricht	-7599
▁Öl	-7600
▁phone	-7601
▁powerful	-7602
▁administration	-7603
▁intell	-7604
▁Immobil	-7605
▁Qualitäts	-7606
ev	-7607
▁administrative	-7608
▁oben	-7609
enty	-7610
▁entstehen	-7611
wenden	-7612
▁—	-7613
▁feed	-7614
13	-7615
▁quant	-7616
▁supports	-7617
gers	-7618
▁justice	-7619
▁aktuelle	-7620
▁Roma	-7621
ras	-7622
▁ersch	-7623
▁Bon	-7624
laufen	-7625
▁Überwach	-7626
▁Dre	-7627
▁Wahlen	-7628
▁entschieden	-7629
▁"...	-7630
▁Wann	-7631
▁gesetzt	-7632
▁inn	-7633
▁contribute	-7634
▁Bran	-7635
▁discrimin	-7636
▁Et	-7637
orea	-7638
8.	-7639
verläss	-7640
▁delivery	-7641
▁Osten	-7642
25	-7643
▁Bur	-7644
▁laws	-7645
▁Boden	-7646
▁India	-7647
▁Costa	-7648
▁extensive	-7649
▁IM	-7650
▁vorgelegt	-7651
artigen	-7652
agraph	-7653
▁cos	-7654
reiber	-7655
alled	-7656
elte	-7657
fiz	-7658
▁Cre	-7659
▁priorities	-7660
▁Besonder	-7661
▁Nah	-7662
▁provision	-7663
struktur	-7664
▁Anerkennung	-7665
ión	-7666
▁auszu	-7667
▁whom	-7668
▁Sing	-7669
//	-7670
▁Holz	-7671
▁Schiff	-7672
fälle	-7673
▁His	-7674
▁likely	-7675
▁Licht	-7676
▁angegeben	-7677
▁Autom	-7678
▁says	-7679
TV	-7680
▁anz	-7681
▁ce	-7682
▁Elekt	-7683
ago	-7684
▁zufrieden	-7685
äher	-7686
▁gere	-7687
ampag	-7688
▁gezeigt	-7689
▁unterb	-7690
stieg	-7691
lichung	-7692
▁encourage	-7693
▁Bestand	-7694
bad	-7695
entwicklung	-7696
▁IP	-7697
▁mindestens	-7698
▁elektron	-7699
▁Ausbildung	-7700
▁nöt	-7701
▁Körper	-7702
▁herz	-7703
▁extend	-7704
haften	-7705
▁larger	-7706
daten	-7707
▁ensuring	-7708
DP	-7709
▁wesentlich	-7710
▁AL	-7711
zech	-7712
▁po	-7713
▁mid	-7714
▁voraus	-7715
▁Arab	-7716
▁scope	-7717
▁Asia	-7718
▁Reformen	-7719
▁ed	-7720
▁vorsch	-7721
▁God	-7722
▁Vorteile	-7723
▁herunter	-7724
▁Vereinbarung	-7725
▁erreich	-7726
▁bewusst	-7727
ündung	-7728
▁medic	-7729
▁Lab	-7730
▁berücksichtigen	-7731
gewöhn	-7732
Le	-7733
zentrum	-7734
▁coordin	-7735
▁Ra	-7736
▁Wik	-7737
▁mehreren	-7738
schuld	-7739
▁Rh	-7740
▁hochwert	-7741
▁speziell	-7742
▁verfügbar	-7743
▁Greece	-7744
AG	-7745
▁risks	-7746
▁Waffen	-7747
▁Spr	-7748
▁played	-7749
afft	-7750
▁Ern	-7751
▁platform	-7752
▁Sea	-7753
ästinens	-7754
ray	-7755
aria	-7756
iums	-7757
endet	-7758
▁Ev	-7759
▁Each	-7760
▁Haft	-7761
▁Ander	-7762
udem	-7763
▁Most	-7764
lying	-7765
▁Any	-7766
ongs	-7767
▁Kommunikation	-7768
▁Stabilität	-7769
▁Som	-7770
iler	-7771
wirken	-7772
benen	-7773
▁victims	-7774
▁Agenda	-7775
▁Kriterien	-7776
▁Durchführung	-7777
▁hund	-7778
▁danke	-7779
▁introduced	-7780
izenz	-7781
▁screen	-7782
time	-7783
▁effectively	-7784
▁Zwischen	-7785
▁entsprechende	-7786
▁nachdem	-7787
▁participation	-7788
aktiv	-7789
▁fellow	-7790
▁usually	-7791
inian	-7792
arus	-7793
▁Garant	-7794
▁Glück	-7795
esearch	-7796
▁served	-7797
▁wahrscheinlich	-7798
▁sources	-7799
▁manner	-7800
▁Irak	-7801
▁repla	-7802
▁wonderful	-7803
fu	-7804
”,	-7805
▁plus	-7806
▁glauben	-7807
▁nationale	-7808
iat	-7809
▁Bemerk	-7810
▁fert	-7811
▁Anspruch	-7812
▁electronic	-7813
▁Alp	-7814
räge	-7815
▁Fakt	-7816
zeichnen	-7817
atively	-7818
▁According	-7819
▁Abschluss	-7820
▁competitive	-7821
▁Archite	-7822
199	-7823
▁detailed	-7824
▁agriculture	-7825
omet	-7826
▁zentral	-7827
▁wert	-7828
▁Besucher	-7829
▁getting	-7830
▁Innovation	-7831
laus	-7832
CD	-7833
▁crime	-7834
ham	-7835
▁Zudem	-7836
iano	-7837
▁black	-7838
▁Olymp	-7839
quality	-7840
▁occur	-7841
▁tabled	-7842
▁functions	-7843
▁Schaden	-7844
mack	-7845
ickets	-7846
▁serve	-7847
▁client	-7848
▁Hintergrund	-7849
▁demokratischen	-7850
anlagen	-7851
▁pleasant	-7852
▁animals	-7853
▁poll	-7854
idential	-7855
ideos	-7856
▁specifically	-7857
▁summit	-7858
án	-7859
mon	-7860
agegen	-7861
▁aimed	-7862
▁Schließlich	-7863
▁Ident	-7864
▁hinweisen	-7865
ING	-7866
://	-7867
▁Tab	-7868
▁Nahr	-7869
▁Middle	-7870
▁installation	-7871
azz	-7872
▁Währung	-7873
▁akzeptieren	-7874
oom	-7875
atoren	-7876
called	-7877
▁Exp	-7878
▁Einsch	-7879
▁Ausgaben	-7880
▁exactly	-7881
▁purposes	-7882
▁Frankfurt	-7883
▁Mitteilung	-7884
▁becoming	-7885
/2	-7886
▁church	-7887
▁Mio	-7888
▁Enterprise	-7889
▁ship	-7890
äden	-7891
▁harm	-7892
▁Regional	-7893
▁erwähnt	-7894
▁luxur	-7895
esents	-7896
führer	-7897
▁Us	-7898
▁Partei	-7899
britann	-7900
▁ec	-7901
odies	-7902
▁Mensch	-7903
▁Sprachen	-7904
▁Zunächst	-7905
▁kontroll	-7906
▁eingerichtet	-7907
idents	-7908
▁white	-7909
▁sort	-7910
letter	-7911
▁Inhalte	-7912
oted	-7913
▁Homepage	-7914
▁möglicherweise	-7915
▁chann	-7916
▁prem	-7917
▁dedic	-7918
▁Ann	-7919
▁Reserv	-7920
▁Zeichen	-7921
▁beschlossen	-7922
▁Sand	-7923
▁Abs	-7924
▁Serb	-7925
ounge	-7926
▁2020	-7927
itzerland	-7928
▁sitting	-7929
▁temper	-7930
▁sicherzustellen	-7931
▁referred	-7932
gerungen	-7933
▁verz	-7934
▁programs	-7935
7,	-7936
öm	-7937
▁mm	-7938
▁gesprochen	-7939
uit	-7940
▁domin	-7941
ael	-7942
▁rural	-7943
▁einzus	-7944
▁angesprochen	-7945
▁wants	-7946
▁camera	-7947
▁Konflikt	-7948
sm	-7949
urses	-7950
▁protected	-7951
Ch	-7952
▁euch	-7953
▁erzielt	-7954
▁reception	-7955
▁represents	-7956
▁Schlaf	-7957
▁geeignet	-7958
▁expand	-7959
▁Sektor	-7960
cers	-7961
spunkt	-7962
ibilität	-7963
zieht	-7964
▁dead	-7965
utin	-7966
▁Then	-7967
▁Eff	-7968
▁developments	-7969
my	-7970
Al	-7971
▁expected	-7972
▁motion	-7973
▁facilit	-7974
wegung	-7975
▁besonderen	-7976
ault	-7977
▁mand	-7978
▁Motor	-7979
enhagen	-7980
hle	-7981
▁Fot	-7982
▁Kind	-7983
▁bestehenden	-7984
▁benutzen	-7985
▁institutional	-7986
uts	-7987
▁Komfort	-7988
▁Dol	-7989
amber	-7990
▁Assoc	-7991
▁Karte	-7992
uber	-7993
▁precisely	-7994
aming	-7995
▁spacious	-7996
▁competen	-7997
▁discussed	-7998
weder	-7999
▁Salz	-8000
▁Czech	-8001
▁mix	-8002
wasser	-8003
▁watch	-8004
▁managed	-8005
▁discussions	-8006
do	-8007
gree	-8008
▁stated	-8009
unkten	-8010
▁convin	-8011
▁thousands	-8012
▁freuen	-8013
bu	-8014
äuser	-8015
▁Board	-8016
▁ausgew	-8017
▁Bew	-8018
▁police	-8019
▁remark	-8020
▁ehr	-8021
▁Milit	-8022
ida	-8023
schiede	-8024
▁Koordin	-8025
▁zug	-8026
ipt	-8027
▁6.	-8028
PT	-8029
▁vac	-8030
▁conver	-8031
7.	-8032
ensions	-8033
▁February	-8034
▁expens	-8035
categories	-8036
▁Other	-8037
▁--	-8038
▁Policy	-8039
uisine	-8040
▁Nutzen	-8041
▁critical	-8042
ologischen	-8043
▁Agreement	-8044
▁rechts	-8045
▁Cast	-8046
ingu	-8047
▁auth	-8048
▁metres	-8049
▁Card	-8050
▁Great	-8051
▁?	-8052
werke	-8053
bruch	-8054
▁sold	-8055
IG	-8056
fahrens	-8057
▁umgesetzt	-8058
▁mil	-8059
▁paper	-8060
rum	-8061
▁Liber	-8062
unk	-8063
▁otherwise	-8064
▁wood	-8065
icks	-8066
▁Anpass	-8067
▁Haushalt	-8068
▁Technologien	-8069
▁Infrastruktur	-8070
achtet	-8071
▁zuletzt	-8072
▁Unterkategorien	-8073
▁Why	-8074
▁geändert	-8075
law	-8076
▁selected	-8077
aste	-8078
ield	-8079
▁;	-8080
▁dienen	-8081
▁Schlüssel	-8082
ücke	-8083
▁braucht	-8084
▁hoffen	-8085
▁Verfass	-8086
kap	-8087
▁forget	-8088
▁Code	-8089
▁Haltung	-8090
▁followed	-8091
▁weap	-8092
▁bequem	-8093
▁Wellness	-8094
▁schwierig	-8095
▁iP	-8096
▁provider	-8097
▁budgetary	-8098
▁chines	-8099
mas	-8100
▁earlier	-8101
▁Aufnahme	-8102
▁inside	-8103
▁finanziellen	-8104
▁Paul	-8105
▁Fischerei	-8106
▁assessment	-8107
üste	-8108
▁Prov	-8109
amente	-8110
▁festgelegt	-8111
▁Geh	-8112
posed	-8113
präsident	-8114
▁votes	-8115
▁Schengen	-8116
▁entry	-8117
ala	-8118
▁erfüllt	-8119
▁covered	-8120
jected	-8121
▁winter	-8122
▁anderes	-8123
▁closely	-8124
inu	-8125
▁impress	-8126
try	-8127
▁prüfen	-8128
▁notwendigen	-8129
ania	-8130
ulierung	-8131
IR	-8132
▁listed	-8133
▁Großbritann	-8134
▁Rooms	-8135
▁Monate	-8136
uropa	-8137
▁radio	-8138
▁Vorbereit	-8139
ureau	-8140
▁vermeiden	-8141
▁actual	-8142
werten	-8143
▁medical	-8144
ending	-8145
▁Funktionen	-8146
▁lösen	-8147
▁trust	-8148
ulieren	-8149
▁corresp	-8150
▁Prote	-8151
▁jene	-8152
denken	-8153
▁compl	-8154
union	-8155
▁scen	-8156
▁spread	-8157
▁Luxem	-8158
▁jederzeit	-8159
▁ergreifen	-8160
▁Turk	-8161
▁Click	-8162
jo	-8163
▁Beitritts	-8164
▁unc	-8165
▁Power	-8166
▁centr	-8167
▁electric	-8168
▁disapp	-8169
▁Klein	-8170
▁unters	-8171
▁Straße	-8172
▁Research	-8173
▁frag	-8174
▁freien	-8175
▁beziehen	-8176
▁ries	-8177
▁Kenntnis	-8178
▁fallen	-8179
▁süd	-8180
▁introduction	-8181
ente	-8182
cause	-8183
ishing	-8184
▁fahren	-8185
▁accomp	-8186
▁guidelines	-8187
▁enterprises	-8188
▁Kindern	-8189
ailing	-8190
chnologie	-8191
▁wünschen	-8192
▁Tun	-8193
▁Klimawand	-8194
roh	-8195
asts	-8196
▁Stil	-8197
Sh	-8198
rel	-8199
band	-8200
▁Produkten	-8201
▁russ	-8202
▁Fle	-8203
▁refuge	-8204
▁opened	-8205
▁Richtlinien	-8206
▁Umst	-8207
ads	-8208
▁Arten	-8209
▁Dateien	-8210
either	-8211
▁buildings	-8212
▁considerable	-8213
▁ausger	-8214
▁Tar	-8215
prechen	-8216
ikanische	-8217
vements	-8218
▁verbessert	-8219
▁45	-8220
▁speech	-8221
▁graph	-8222
▁gleiche	-8223
▁networks	-8224
▁400	-8225
▁Suche	-8226
▁color	-8227
▁multil	-8228
EW	-8229
▁Haup	-8230
Sp	-8231
▁einzu	-8232
▁improving	-8233
▁operations	-8234
mär	-8235
▁multip	-8236
▁darunter	-8237
▁Ap	-8238
▁Ja	-8239
▁ged	-8240
▁Zweck	-8241
2-	-8242
▁Found	-8243
▁territor	-8244
aves	-8245
jekten	-8246
▁supporting	-8247
▁ade	-8248
▁Vielfalt	-8249
▁Banken	-8250
scher	-8251
▁Apartments	-8252
gets	-8253
▁Meter	-8254
▁understanding	-8255
ktiven	-8256
▁uses	-8257
reiten	-8258
▁Menge	-8259
▁kostenlos	-8260
▁substantial	-8261
▁Bush	-8262
▁comment	-8263
levision	-8264
▁linked	-8265
▁Av	-8266
etze	-8267
▁Office	-8268
ometer	-8269
▁beds	-8270
lad	-8271
▁Switzerland	-8272
▁Installation	-8273
atik	-8274
möglich	-8275
▁Pakistan	-8276
▁stattfinden	-8277
▁Break	-8278
▁Standards	-8279
▁exclusive	-8280
▁degree	-8281
▁Economic	-8282
maß	-8283
▁Moment	-8284
▁save	-8285
▁erhöhen	-8286
▁immigration	-8287
▁effizient	-8288
▁lesen	-8289
▁compar	-8290
▁empfehl	-8291
▁erzielen	-8292
▁Einrichtungen	-8293
▁sicherlich	-8294
freiheit	-8295
▁gemüt	-8296
▁explo	-8297
▁went	-8298
▁telephone	-8299
igem	-8300
▁Pack	-8301
▁map	-8302
rahmen	-8303
▁tempor	-8304
gu	-8305
imb	-8306
▁abzu	-8307
gencies	-8308
nach	-8309
punkte	-8310
23	-8311
istrib	-8312
▁Fischere	-8313
▁Charakter	-8314
▁Sinn	-8315
▁dramat	-8316
▁components	-8317
kunfts	-8318
▁hands	-8319
onym	-8320
▁Lib	-8321
▁angezeigt	-8322
▁Prag	-8323
kan	-8324
▁Wege	-8325
▁shower	-8326
zieren	-8327
▁gewün	-8328
▁gelangen	-8329
▁gern	-8330
▁jeweils	-8331
schul	-8332
▁Rein	-8333
▁marketing	-8334
▁abst	-8335
chmal	-8336
clude	-8337
wirk	-8338
crete	-8339
▁cuisine	-8340
▁convenient	-8341
sper	-8342
▁compens	-8343
▁Frem	-8344
▁stärk	-8345
▁picture	-8346
mod	-8347
preis	-8348
▁wären	-8349
▁playing	-8350
▁Sow	-8351
▁bott	-8352
▁Telefon	-8353
▁Top	-8354
iques	-8355
▁Vereinten	-8356
▁übernachten	-8357
▁destro	-8358
▁gave	-8359
konferenz	-8360
▁NI	-8361
TA	-8362
▁scr	-8363
▁Sehens	-8364
▁properly	-8365
▁acqu	-8366
▁experts	-8367
het	-8368
itors	-8369
▁purchase	-8370
inc	-8371
itze	-8372
umin	-8373
▁Barro	-8374
sta	-8375
▁entweder	-8376
▁ging	-8377
▁presence	-8378
ussels	-8379
uting	-8380
prüfung	-8381
▁Status	-8382
▁willing	-8383
▁Street	-8384
▁format	-8385
▁Februar	-8386
▁founded	-8387
wohner	-8388
▁refle	-8389
▁entirely	-8390
gebaut	-8391
▁brief	-8392
▁delay	-8393
▁income	-8394
▁ergän	-8395
▁items	-8396
leitung	-8397
▁Grundsatz	-8398
▁Ky	-8399
▁entit	-8400
▁teilweise	-8401
▁mobil	-8402
▁Abschließend	-8403
▁komplex	-8404
▁Lehr	-8405
ütze	-8406
-20	-8407
can	-8408
▁verring	-8409
▁kommenden	-8410
overy	-8411
▁Stimme	-8412
▁Belarus	-8413
▁Wirk	-8414
▁tourism	-8415
▁AN	-8416
itter	-8417
▁Bereit	-8418
▁alte	-8419
▁gekommen	-8420
▁door	-8421
gemeine	-8422
▁Forderung	-8423
▁Büro	-8424
▁photograph	-8425
olden	-8426
▁moral	-8427
ora	-8428
istence	-8429
▁Netzwerk	-8430
▁Veränderungen	-8431
▁competitiveness	-8432
▁EAD	-8433
▁besuchen	-8434
club	-8435
▁plants	-8436
▁Datei	-8437
▁komplett	-8438
orr	-8439
▁Guest	-8440
▁ISO	-8441
▁Techn	-8442
▁average	-8443
▁7.	-8444
▁193	-8445
▁htt	-8446
▁animal	-8447
▁generally	-8448
▁Unfortunately	-8449
schlossen	-8450
▁typical	-8451
▁Over	-8452
▁grenz	-8453
Aus	-8454
edia	-8455
▁alloc	-8456
▁elimin	-8457
▁Station	-8458
▁ständig	-8459
▁ausdrücklich	-8460
stelle	-8461
▁funktioniert	-8462
▁domestic	-8463
gal	-8464
▁untern	-8465
▁Because	-8466
▁Teile	-8467
▁Poland	-8468
aw	-8469
▁duty	-8470
▁Never	-8471
▁coffe	-8472
▁3,	-8473
▁presidency	-8474
▁authority	-8475
▁erstellt	-8476
▁facing	-8477
▁strict	-8478
▁tack	-8479
gment	-8480
▁handeln	-8481
▁technische	-8482
▁hosp	-8483
▁zuvor	-8484
ennis	-8485
▁lernen	-8486
erstellen	-8487
▁suc	-8488
gewicht	-8489
▁Leider	-8490
▁sho	-8491
▁permanent	-8492
▁glob	-8493
▁relate	-8494
▁stimme	-8495
▁coordination	-8496
plätze	-8497
▁adjust	-8498
▁sagt	-8499
▁Arbeiten	-8500
tete	-8501
vey	-8502
▁welcher	-8503
▁Leistungen	-8504
▁wollte	-8505
▁Brussels	-8506
ura	-8507
EA	-8508
▁Unabhäng	-8509
ünden	-8510
▁detail	-8511
▁sauber	-8512
▁dealing	-8513
fachen	-8514
▁incor	-8515
▁Verwaltungs	-8516
tempor	-8517
▁fisheries	-8518
▁nieder	-8519
▁peaceful	-8520
▁dagegen	-8521
sb	-8522
ossible	-8523
▁sole	-8524
▁shops	-8525
▁betonen	-8526
▁vehicles	-8527
▁Health	-8528
▁Jetzt	-8529
räft	-8530
▁difficulties	-8531
1)	-8532
▁calc	-8533
▁ober	-8534
▁klare	-8535
▁Kurz	-8536
▁dro	-8537
▁constit	-8538
▁prä	-8539
▁Instrumente	-8540
▁Plen	-8541
▁psych	-8542
ameter	-8543
▁dispos	-8544
▁informieren	-8545
▁Wien	-8546
km	-8547
▁Völker	-8548
▁Kol	-8549
▁percent	-8550
▁Berichte	-8551
▁advanced	-8552
RA	-8553
inary	-8554
▁machines	-8555
▁Phil	-8556
▁combat	-8557
▁Name	-8558
▁interpret	-8559
▁Verständ	-8560
▁resort	-8561
▁Engagement	-8562
▁criminal	-8563
▁3-	-8564
umn	-8565
▁Anteil	-8566
▁Flücht	-8567
▁Schn	-8568
90	-8569
ee	-8570
▁Systeme	-8571
▁durchaus	-8572
like	-8573
▁verur	-8574
▁Sach	-8575
▁Bos	-8576
Er	-8577
ishes	-8578
▁district	-8579
▁darstellen	-8580
aken	-8581
▁becomes	-8582
lern	-8583
▁Kal	-8584
portion	-8585
▁Risiko	-8586
▁fixed	-8587
▁Zeiten	-8588
▁thinking	-8589
▁sand	-8590
▁Fore	-8591
ünen	-8592
▁sorg	-8593
▁Bay	-8594
▁recognis	-8595
▁applies	-8596
▁Webseite	-8597
▁Abgeordnete	-8598
▁Initiativen	-8599
▁meetings	-8600
dis	-8601
▁Out	-8602
▁Maschinen	-8603
▁stärken	-8604
▁gradu	-8605
▁Madrid	-8606
▁PHP	-8607
2)	-8608
▁Zeitraum	-8609
▁numbers	-8610
inding	-8611
füll	-8612
▁Grenz	-8613
▁fragen	-8614
IB	-8615
▁succeed	-8616
▁trave	-8617
▁organisation	-8618
▁hour	-8619
▁bear	-8620
▁Eisen	-8621
▁Under	-8622
▁Vielen	-8623
▁opposition	-8624
bew	-8625
hrase	-8626
▁speaking	-8627
ua	-8628
▁Dollar	-8629
▁Act	-8630
▁resist	-8631
▁Herausforderung	-8632
▁wenigen	-8633
iking	-8634
▁Vill	-8635
schech	-8636
öffnen	-8637
▁Warum	-8638
▁Immobilien	-8639
▁Herstellung	-8640
▁Dienste	-8641
▁Übergang	-8642
▁Wander	-8643
umm	-8644
▁unternehmen	-8645
▁erleben	-8646
▁é	-8647
angel	-8648
▁consideration	-8649
▁Band	-8650
▁Casino	-8651
MU	-8652
▁pros	-8653
▁politics	-8654
▁signal	-8655
▁Begriff	-8656
▁GN	-8657
▁Non	-8658
▁schem	-8659
▁http	-8660
▁Heil	-8661
▁benötigt	-8662
▁gefordert	-8663
▁IC	-8664
▁Mö	-8665
ranken	-8666
SL	-8667
▁SP	-8668
▁Once	-8669
▁Fonds	-8670
▁lif	-8671
▁middle	-8672
▁Environment	-8673
▁flexibility	-8674
ißen	-8675
qualität	-8676
▁eingesch	-8677
hnung	-8678
▁EADS	-8679
oman	-8680
▁Gipfel	-8681
riff	-8682
▁monetary	-8683
haben	-8684
▁instru	-8685
.”	-8686
▁orient	-8687
▁told	-8688
▁Einigung	-8689
▁konkrete	-8690
▁Angaben	-8691
ova	-8692
illing	-8693
▁practices	-8694
▁financing	-8695
▁gering	-8696
▁veröffentlicht	-8697
ashion	-8698
embly	-8699
▁Mount	-8700
▁Kritik	-8701
▁hält	-8702
▁Kil	-8703
▁behav	-8704
▁easier	-8705
▁finanzielle	-8706
▁Versuch	-8707
▁Bern	-8708
▁volle	-8709
▁Kingdom	-8710
Str	-8711
▁früh	-8712
▁trägt	-8713
▁contra	-8714
iscal	-8715
▁aims	-8716
▁Königreich	-8717
hörde	-8718
icians	-8719
▁paragraph	-8720
▁jur	-8721
▁economies	-8722
rich	-8723
▁Origin	-8724
worten	-8725
▁freue	-8726
▁hinzuf	-8727
▁fit	-8728
▁Tool	-8729
aker	-8730
▁dangerous	-8731
▁rent	-8732
!!	-8733
pendence	-8734
▁nächste	-8735
▁database	-8736
▁absolut	-8737
▁19.	-8738
▁gewährleistet	-8739
▁verwende	-8740
▁Jahrhunderts	-8741
▁Großbritannien	-8742
year	-8743
tte	-8744
▁Vien	-8745
egu	-8746
▁failure	-8747
▁lokalen	-8748
lisch	-8749
free	-8750
▁liebe	-8751
isierten	-8752
▁konzentrieren	-8753
führten	-8754
▁Hauses	-8755
▁Sehenswürd	-8756
▁Wass	-8757
▁superv	-8758
▁Mir	-8759
äumen	-8760
II	-8761
▁wirks	-8762
▁experienced	-8763
pper	-8764
esterday	-8765
▁fle	-8766
▁Saf	-8767
▁promotion	-8768
yes	-8769
▁Worte	-8770
▁defined	-8771
▁Sonnen	-8772
▁Klicken	-8773
▁Absatz	-8774
cknow	-8775
▁myself	-8776
wagen	-8777
▁Mitgliedstaat	-8778
▁erklären	-8779
▁erscheint	-8780
▁signed	-8781
iro	-8782
▁zul	-8783
waren	-8784
▁erfolgen	-8785
▁sle	-8786
▁bodies	-8787
zwischen	-8788
▁beru	-8789
▁Technik	-8790
▁propose	-8791
▁Black	-8792
fa	-8793
preise	-8794
▁hop	-8795
▁stable	-8796
etter	-8797
accept	-8798
▁himself	-8799
opol	-8800
▁Private	-8801
▁Gebieten	-8802
▁multi	-8803
▁Dennoch	-8804
bericht	-8805
leistungs	-8806
▁zerst	-8807
peratur	-8808
▁klicken	-8809
▁establishment	-8810
flanzen	-8811
lösung	-8812
▁Breakfast	-8813
▁seriously	-8814
▁amerikanischen	-8815
oyal	-8816
▁informed	-8817
▁Kenn	-8818
haber	-8819
uba	-8820
isms	-8821
known	-8822
▁Zweifel	-8823
wogen	-8824
▁Modern	-8825
▁parliamentary	-8826
licherweise	-8827
▁betrachtet	-8828
▁ancient	-8829
▁anyone	-8830
▁difference	-8831
▁coffee	-8832
▁Rechnung	-8833
ée	-8834
▁dennoch	-8835
making	-8836
▁31	-8837
▁sty	-8838
▁verfolgen	-8839
▁acknow	-8840
▁Note	-8841
▁clar	-8842
▁klass	-8843
▁Mechan	-8844
qual	-8845
▁Lo	-8846
▁models	-8847
▁estate	-8848
▁Super	-8849
▁organiz	-8850
▁Bib	-8851
▁erstellen	-8852
▁rech	-8853
ohlen	-8854
▁Atlant	-8855
▁Regelung	-8856
▁appears	-8857
lägen	-8858
▁Hafen	-8859
iche	-8860
▁Asyl	-8861
▁combination	-8862
iegel	-8863
schung	-8864
▁promoting	-8865
▁Nachfolgend	-8866
▁Ratsvorsitz	-8867
▁celebr	-8868
ibet	-8869
▁geograph	-8870
llos	-8871
▁Strom	-8872
▁cooper	-8873
▁Forderungen	-8874
▁Ul	-8875
▁möglichst	-8876
▁differences	-8877
▁Aufbau	-8878
▁gegenseit	-8879
▁translation	-8880
ih	-8881
SC	-8882
▁Währungs	-8883
▁Brüssel	-8884
▁Prioritäten	-8885
▁Rum	-8886
▁oppos	-8887
greif	-8888
▁Forum	-8889
cting	-8890
▁gegründet	-8891
▁imag	-8892
▁associated	-8893
▁studies	-8894
▁Allgemein	-8895
▁positions	-8896
ibrary	-8897
▁verlassen	-8898
%.	-8899
▁Titel	-8900
box	-8901
▁Analyse	-8902
öder	-8903
arter	-8904
▁voice	-8905
▁leader	-8906
▁spielt	-8907
▁Stellungnahme	-8908
sport	-8909
▁Leistung	-8910
▁Mel	-8911
▁behaup	-8912
kle	-8913
▁Fen	-8914
▁connected	-8915
▁umfasst	-8916
▁verloren	-8917
▁structures	-8918
▁manage	-8919
üg	-8920
▁Sekt	-8921
üter	-8922
▁carefully	-8923
▁legen	-8924
▁Nahrungs	-8925
▁cred	-8926
▁welcom	-8927
deck	-8928
▁Santa	-8929
▁Einhaltung	-8930
▁tut	-8931
▁unge	-8932
krieg	-8933
▁Harmon	-8934
▁persönlich	-8935
▁beaches	-8936
ifiziert	-8937
▁concrete	-8938
▁Griechenland	-8939
da	-8940
▁Terrasse	-8941
▁accur	-8942
zeption	-8943
▁happened	-8944
▁spent	-8945
▁21.	-8946
▁übertragen	-8947
▁pet	-8948
▁impossible	-8949
allel	-8950
▁Aspekt	-8951
hindert	-8952
▁Freund	-8953
orient	-8954
reifen	-8955
▁withdra	-8956
karten	-8957
DA	-8958
▁täglich	-8959
▁Association	-8960
leiten	-8961
cts	-8962
▁humanitarian	-8963
▁Rec	-8964
▁natur	-8965
▁reducing	-8966
▁attractive	-8967
▁nennen	-8968
▁immediate	-8969
leihen	-8970
▁booking	-8971
▁announced	-8972
▁Formen	-8973
▁approxim	-8974
▁courses	-8975
▁houses	-8976
▁agencies	-8977
▁unaccept	-8978
▁implementing	-8979
▁Kirche	-8980
räume	-8981
ando	-8982
▁geleistet	-8983
▁1996	-8984
▁collabor	-8985
▁evidence	-8986
▁Gewähr	-8987
arta	-8988
läuf	-8989
▁exhibition	-8990
mögen	-8991
hy	-8992
▁Firstly	-8993
aby	-8994
▁neighbour	-8995
▁statements	-8996
rollen	-8997
yright	-8998
▁begrenz	-8999
▁Umfang	-9000
▁ausges	-9001
sicherheit	-9002
▁Geist	-9003
▁Ideen	-9004
▁Alex	-9005
▁Mittelmeer	-9006
künd	-9007
▁Messe	-9008
▁instance	-9009
▁Katastrop	-9010
▁Trade	-9011
▁safegu	-9012
▁defence	-9013
▁length	-9014
▁schönen	-9015
▁diskutieren	-9016
zeugung	-9017
▁positiv	-9018
ris	-9019
ading	-9020
▁Wicht	-9021
▁excess	-9022
▁Komple	-9023
▁denken	-9024
▁Paket	-9025
▁Colle	-9026
▁producers	-9027
▁Prime	-9028
▁vere	-9029
▁ahead	-9030
▁endgült	-9031
▁consumption	-9032
▁Texte	-9033
verkehrs	-9034
▁shared	-9035
▁names	-9036
▁adapt	-9037
door	-9038
▁Wand	-9039
▁Kompeten	-9040
gas	-9041
▁Sorge	-9042
▁Stein	-9043
▁Syr	-9044
▁erleich	-9045
ategory	-9046
tenance	-9047
▁Irish	-9048
▁Achtung	-9049
▁Gleichzeitig	-9050
▁mist	-9051
▁article	-9052
body	-9053
▁truly	-9054
▁Fernse	-9055
▁Angesichts	-9056
Ab	-9057
liefer	-9058
▁Hamburg	-9059
ärm	-9060
▁AK	-9061
▁win	-9062
ilder	-9063
erman	-9064
▁bemer	-9065
▁condem	-9066
▁Vielzahl	-9067
▁released	-9068
älter	-9069
▁Due	-9070
▁advance	-9071
▁arrival	-9072
ointed	-9073
▁Christian	-9074
▁reasonable	-9075
▁Lesung	-9076
▁hair	-9077
▁arbeitet	-9078
▁alt	-9079
LE	-9080
▁architecture	-9081
oring	-9082
arischen	-9083
ruf	-9084
▁Hard	-9085
▁unabhängig	-9086
▁Wün	-9087
▁stell	-9088
person	-9089
▁Führung	-9090
▁television	-9091
▁compla	-9092
▁Anwendungen	-9093
▁satell	-9094
▁unan	-9095
organisation	-9096
iffer	-9097
▁described	-9098
▁profitieren	-9099
▁garantiert	-9100
▁availability	-9101
▁fulfil	-9102
▁Hersteller	-9103
▁abgeschlossen	-9104
24	-9105
▁adoption	-9106
▁erforderlichen	-9107
▁feststellen	-9108
▁Gemeinsamen	-9109
wissen	-9110
▁guarantees	-9111
äck	-9112
▁ow	-9113
▁background	-9114
▁Entwicklungen	-9115
äten	-9116
▁membership	-9117
zz	-9118
ista	-9119
Es	-9120
ae	-9121
▁skills	-9122
lück	-9123
meld	-9124
regel	-9125
▁hören	-9126
raucher	-9127
▁calling	-9128
▁Hall	-9129
sprogramm	-9130
▁continued	-9131
▁überprüfen	-9132
stimmung	-9133
▁charged	-9134
▁Finn	-9135
▁Ruhe	-9136
Ne	-9137
kor	-9138
▁au	-9139
▁),	-9140
▁cards	-9141
▁taste	-9142
▁enth	-9143
ny	-9144
▁ausreichend	-9145
ensus	-9146
rem	-9147
okraten	-9148
▁England	-9149
▁Sehr	-9150
▁isol	-9151
ränken	-9152
5-	-9153
▁improvement	-9154
jährigen	-9155
▁Polen	-9156
▁entertain	-9157
nam	-9158
▁Afrika	-9159
▁territory	-9160
▁recognition	-9161
Script	-9162
▁Patienten	-9163
▁genuine	-9164
gypt	-9165
▁relaxing	-9166
▁Seine	-9167
▁einiger	-9168
▁effektiv	-9169
▁possibilities	-9170
rate	-9171
iendly	-9172
condition	-9173
▁continues	-9174
▁bezeichnet	-9175
sized	-9176
▁Saint	-9177
▁Aussicht	-9178
▁unz	-9179
grade	-9180
▁wishes	-9181
ries	-9182
▁raise	-9183
▁nearby	-9184
▁00	-9185
upp	-9186
posit	-9187
▁generation	-9188
▁unto	-9189
▁trag	-9190
▁weiterer	-9191
ologische	-9192
ador	-9193
▁richtigen	-9194
▁indire	-9195
▁10.	-9196
▁miteinander	-9197
▁Dorf	-9198
▁Poker	-9199
▁Effe	-9200
itious	-9201
▁Stärkung	-9202
▁forest	-9203
temporary	-9204
▁unacceptable	-9205
▁Vo	-9206
▁owners	-9207
▁Justice	-9208
▁Kommissions	-9209
▁combined	-9210
irus	-9211
▁discrimination	-9212
uble	-9213
▁Lam	-9214
▁trading	-9215
istisch	-9216
ww	-9217
Kon	-9218
gestimmt	-9219
▁Wi	-9220
▁Wall	-9221
▁gewinnen	-9222
▁tätig	-9223
European	-9224
▁greatest	-9225
▁Defin	-9226
▁relativ	-9227
▁spl	-9228
▁MP	-9229
▁occasion	-9230
▁Polize	-9231
▁allowing	-9232
▁cars	-9233
▁cur	-9234
▁delic	-9235
▁zahlen	-9236
▁Wald	-9237
▁haup	-9238
▁Überwachung	-9239
auftrag	-9240
▁vernünft	-9241
▁glass	-9242
▁Barroso	-9243
▁tasks	-9244
▁figures	-9245
▁Tourismus	-9246
▁sn	-9247
▁introduce	-9248
▁Typ	-9249
▁Element	-9250
▁kulturellen	-9251
asil	-9252
14	-9253
▁burden	-9254
▁participate	-9255
bieter	-9256
▁desire	-9257
haltet	-9258
▁Digital	-9259
▁devices	-9260
16	-9261
▁packages	-9262
▁strongly	-9263
18	-9264
▁vul	-9265
▁hingewiesen	-9266
▁completed	-9267
▁Versch	-9268
▁expend	-9269
▁enables	-9270
▁spending	-9271
▁Foundation	-9272
icking	-9273
sequent	-9274
road	-9275
▁24-	-9276
▁eingeführt	-9277
▁Bis	-9278
▁Heimat	-9279
▁Konz	-9280
▁Schön	-9281
gegeben	-9282
▁African	-9283
▁surrounding	-9284
linge	-9285
ireless	-9286
olz	-9287
▁Ausfl	-9288
--	-9289
▁Europeans	-9290
Date	-9291
▁Indien	-9292
▁transition	-9293
▁Beach	-9294
führungen	-9295
bindung	-9296
▁Irland	-9297
▁Künstler	-9298
▁überall	-9299
▁erf	-9300
weist	-9301
chnet	-9302
▁Check	-9303
▁religious	-9304
▁attach	-9305
bere	-9306
▁conv	-9307
▁Bedürfnisse	-9308
▁Main	-9309
▁zentrale	-9310
www	-9311
▁norm	-9312
ema	-9313
▁stim	-9314
▁Ear	-9315
▁unfortunately	-9316
afr	-9317
öse	-9318
active	-9319
▁Anw	-9320
▁union	-9321
stands	-9322
▁beginnt	-9323
▁Mun	-9324
▁konstru	-9325
eto	-9326
partner	-9327
▁Teilnehmer	-9328
zig	-9329
▁kons	-9330
▁except	-9331
▁unless	-9332
▁Anlagen	-9333
▁ST	-9334
▁attractions	-9335
▁mission	-9336
▁0.	-9337
▁steigen	-9338
öss	-9339
ugos	-9340
▁micro	-9341
▁beauty	-9342
▁Entwurf	-9343
▁Problemen	-9344
▁geschehen	-9345
▁vert	-9346
▁danach	-9347
▁20.	-9348
▁Work	-9349
andidaten	-9350
▁Live	-9351
windigkeit	-9352
▁Federal	-9353
aration	-9354
chem	-9355
▁square	-9356
sektor	-9357
▁closer	-9358
▁insurance	-9359
▁Zuständ	-9360
▁Beschreibung	-9361
▁window	-9362
▁spezielle	-9363
:0	-9364
▁Mik	-9365
▁appeal	-9366
▁registered	-9367
viel	-9368
▁meters	-9369
utch	-9370
▁Foto	-9371
▁aufmerksam	-9372
olo	-9373
reten	-9374
▁Links	-9375
▁einsetzen	-9376
▁Rome	-9377
holung	-9378
▁politischer	-9379
pa	-9380
ido	-9381
▁command	-9382
▁regionalen	-9383
▁pure	-9384
▁born	-9385
▁einst	-9386
▁Turkish	-9387
▁river	-9388
▁Fortschritt	-9389
▁üb	-9390
fle	-9391
assung	-9392
▁Democrats	-9393
LAN	-9394
kräfte	-9395
▁surface	-9396
▁sides	-9397
allery	-9398
▁entstanden	-9399
bieten	-9400
▁Rechnungs	-9401
government	-9402
▁fiscal	-9403
rüst	-9404
▁Fel	-9405
▁PDF	-9406
▁Nether	-9407
▁button	-9408
▁unterstütze	-9409
▁Rand	-9410
▁Fotos	-9411
▁Diskrimin	-9412
▁leb	-9413
▁Partnerschaft	-9414
▁enormous	-9415
ikal	-9416
hören	-9417
▁Very	-9418
rochen	-9419
▁dedicated	-9420
▁Priorität	-9421
tzeit	-9422
▁urban	-9423
▁USB	-9424
▁Beitritt	-9425
▁Michael	-9426
▁entitled	-9427
▁keinerlei	-9428
pal	-9429
▁sale	-9430
isierte	-9431
▁Support	-9432
▁besitzt	-9433
▁asyl	-9434
▁Another	-9435
▁Europäer	-9436
▁verfolgt	-9437
ía	-9438
▁8.	-9439
ilst	-9440
▁bestätigt	-9441
▁32	-9442
▁enor	-9443
▁Vienna	-9444
▁failed	-9445
▁finance	-9446
▁größeren	-9447
▁Custom	-9448
▁Altstadt	-9449
ags	-9450
▁sämtliche	-9451
brauch	-9452
▁Globalisierung	-9453
▁offensichtlich	-9454
▁gegenwärtig	-9455
Ge	-9456
▁Nav	-9457
▁Verletz	-9458
▁Drogen	-9459
▁Mat	-9460
▁meant	-9461
▁una	-9462
▁fruit	-9463
▁nom	-9464
▁reliable	-9465
▁Muse	-9466
EO	-9467
▁Festival	-9468
▁nütz	-9469
▁perspective	-9470
▁vorliegenden	-9471
▁dir	-9472
teten	-9473
▁2009.	-9474
▁Bewertung	-9475
technik	-9476
aktionen	-9477
▁grenzüber	-9478
atever	-9479
▁großes	-9480
▁französischen	-9481
▁asylum	-9482
ürk	-9483
▁ök	-9484
▁Meiner	-9485
▁forced	-9486
▁compared	-9487
▁Verst	-9488
▁individuals	-9489
version	-9490
▁gestalten	-9491
▁haupts	-9492
höhung	-9493
▁installed	-9494
Innen	-9495
▁beteiligt	-9496
▁gram	-9497
▁vision	-9498
▁Greek	-9499
▁einfache	-9500
]],	-9501
▁Elemente	-9502
▁vollkommen	-9503
▁romant	-9504
steht	-9505
▁biggest	-9506
ENT	-9507
cont	-9508
istik	-9509
▁learning	-9510
▁CH	-9511
▁stands	-9512
▁exercise	-9513
▁corporate	-9514
▁Syn	-9515
▁kept	-9516
▁Deutsche	-9517
enkt	-9518
▁reservation	-9519
inder	-9520
inde	-9521
▁claims	-9522
▁Verpflichtung	-9523
▁liter	-9524
▁railway	-9525
irl	-9526
▁Media	-9527
attform	-9528
▁Stadtz	-9529
▁session	-9530
▁totally	-9531
bring	-9532
▁story	-9533
▁Urs	-9534
▁äuß	-9535
omas	-9536
▁luxury	-9537
▁Jeder	-9538
▁Verteidigung	-9539
▁empfehlen	-9540
ram	-9541
▁dauer	-9542
irms	-9543
olge	-9544
▁Bill	-9545
▁Registr	-9546
comm	-9547
▁Lake	-9548
▁höchste	-9549
▁storage	-9550
▁warten	-9551
▁shop	-9552
onia	-9553
▁Yet	-9554
▁holidays	-9555
▁earth	-9556
▁Nevertheless	-9557
▁Mü	-9558
▁geschützt	-9559
▁gutes	-9560
▁zusätzlich	-9561
▁kü	-9562
▁advertising	-9563
älfte	-9564
▁Worten	-9565
▁umfassende	-9566
▁internationaler	-9567
▁Po	-9568
▁Back	-9569
▁Option	-9570
▁device	-9571
▁Monat	-9572
▁convinced	-9573
▁buffet	-9574
▁Märkte	-9575
▁motiv	-9576
▁diplomat	-9577
▁einver	-9578
▁notice	-9579
▁court	-9580
▁ru	-9581
▁qualit	-9582
ausschusses	-9583
▁Tisch	-9584
▁Justiz	-9585
▁Gerichtshof	-9586
▁Mond	-9587
▁seven	-9588
MS	-9589
imit	-9590
▁beige	-9591
▁diss	-9592
▁extended	-9593
▁garantieren	-9594
▁rob	-9595
erver	-9596
▁Maße	-9597
▁lä	-9598
▁disease	-9599
Fi	-9600
zust	-9601
zep	-9602
▁gegenwärtigen	-9603
500	-9604
erma	-9605
▁earn	-9606
jet	-9607
alia	-9608
▁magn	-9609
▁controls	-9610
▁Regelungen	-9611
▁urgent	-9612
▁verbundenen	-9613
▁Eindruck	-9614
▁core	-9615
▁tief	-9616
▁ergeben	-9617
ipping	-9618
uchten	-9619
▁hum	-9620
eller	-9621
▁Control	-9622
ibel	-9623
▁memory	-9624
▁Mutter	-9625
hlt	-9626
igrants	-9627
▁factors	-9628
reisen	-9629
▁geeig	-9630
▁labor	-9631
▁granted	-9632
▁mountains	-9633
mittag	-9634
▁scale	-9635
▁solcher	-9636
EU	-9637
stattung	-9638
▁Meeres	-9639
▁unable	-9640
erse	-9641
▁Eastern	-9642
▁Größe	-9643
▁genet	-9644
▁aufzu	-9645
▁golf	-9646
▁advice	-9647
▁Verz	-9648
▁Front	-9649
▁Gründe	-9650
▁highlight	-9651
▁Grunde	-9652
▁passed	-9653
▁science	-9654
▁Ve	-9655
▁formal	-9656
▁müs	-9657
▁unit	-9658
▁weapons	-9659
▁moving	-9660
▁beinhaltet	-9661
force	-9662
▁Netherlands	-9663
ancial	-9664
▁Foreign	-9665
▁folgende	-9666
▁veget	-9667
▁Vertrie	-9668
onial	-9669
▁Kurs	-9670
ington	-9671
oram	-9672
▁sogen	-9673
▁reprodu	-9674
▁Städte	-9675
▁tried	-9676
▁contrary	-9677
xts	-9678
▁Market	-9679
▁grie	-9680
▁Universität	-9681
▁grant	-9682
ague	-9683
heits	-9684
▁grunds	-9685
▁betrachten	-9686
leun	-9687
▁guide	-9688
reibt	-9689
▁outcome	-9690
▁intervention	-9691
▁Data	-9692
wachst	-9693
▁conclusions	-9694
▁cra	-9695
▁Austrian	-9696
▁establishing	-9697
iode	-9698
▁Haut	-9699
Sterne	-9700
▁ausführ	-9701
lägt	-9702
▁Todes	-9703
Das	-9704
hebung	-9705
ilot	-9706
fallen	-9707
det	-9708
▁chair	-9709
actions	-9710
itage	-9711
prinzip	-9712
reck	-9713
▁prison	-9714
enntnisse	-9715
▁Gebrauch	-9716
▁Opp	-9717
iced	-9718
▁liber	-9719
▁election	-9720
▁mode	-9721
istor	-9722
▁legitim	-9723
▁Beteiligung	-9724
▁12.	-9725
▁Ans	-9726
▁Budget	-9727
▁Day	-9728
▁match	-9729
▁Gegensatz	-9730
▁Politiker	-9731
schrift	-9732
aket	-9733
äfen	-9734
▁Unterkunft	-9735
▁perfectly	-9736
▁Unabhängigkeit	-9737
athed	-9738
▁Third	-9739
▁Regulation	-9740
▁Fitness	-9741
down	-9742
▁erh	-9743
▁pour	-9744
▁defic	-9745
ammer	-9746
straße	-9747
▁Erklärungen	-9748
versorgung	-9749
▁Thus	-9750
▁para	-9751
verein	-9752
▁commitments	-9753
▁kos	-9754
glieder	-9755
▁interface	-9756
▁teilnehmen	-9757
▁wunderschö	-9758
:30	-9759
▁destroy	-9760
▁wesentlichen	-9761
▁na	-9762
▁chosen	-9763
ügel	-9764
unehm	-9765
▁drawn	-9766
▁Presse	-9767
▁Company	-9768
▁Dus	-9769
worfen	-9770
ario	-9771
▁unf	-9772
▁Mindest	-9773
▁Studio	-9774
▁Latin	-9775
▁Leistungs	-9776
▁(3	-9777
▁freie	-9778
▁erhöht	-9779
▁neither	-9780
stät	-9781
setzt	-9782
So	-9783
▁dimension	-9784
▁britischen	-9785
System	-9786
▁White	-9787
▁Palace	-9788
▁Van	-9789
▁forth	-9790
liothe	-9791
▁Where	-9792
▁rightly	-9793
ichtete	-9794
▁starke	-9795
▁artists	-9796
▁Institute	-9797
▁Quest	-9798
▁Risiken	-9799
reu	-9800
▁Croat	-9801
▁korre	-9802
▁jour	-9803
▁beglück	-9804
▁definition	-9805
▁Martin	-9806
▁massive	-9807
▁expression	-9808
-3	-9809
▁maintenance	-9810
bald	-9811
▁route	-9812
▁dient	-9813
ktivität	-9814
▁Studien	-9815
nehmern	-9816
▁Karten	-9817
▁Nutzer	-9818
▁definit	-9819
look	-9820
endum	-9821
▁fern	-9822
Reg	-9823
mittelt	-9824
Ex	-9825
▁balcon	-9826
▁defend	-9827
▁SD	-9828
▁saw	-9829
▁spa	-9830
▁Special	-9831
▁beglückwün	-9832
▁Anlage	-9833
▁sched	-9834
▁ambitious	-9835
▁langen	-9836
▁chemical	-9837
▁Obama	-9838
▁Lizenz	-9839
▁Vermitt	-9840
▁candidate	-9841
erap	-9842
▁outstanding	-9843
ansion	-9844
SQL	-9845
▁Fert	-9846
▁Relig	-9847
▁sam	-9848
▁Fire	-9849
▁revolution	-9850
▁analy	-9851
▁wealth	-9852
fähig	-9853
vorschlag	-9854
▁laid	-9855
▁honourable	-9856
▁Verständnis	-9857
▁speziellen	-9858
äufer	-9859
▁Wiederauf	-9860
apers	-9861
▁Emiss	-9862
▁agency	-9863
▁achieving	-9864
Ber	-9865
ancy	-9866
gibt	-9867
anische	-9868
▁colour	-9869
▁Beim	-9870
bett	-9871
▁photos	-9872
▁weight	-9873
aub	-9874
▁constantly	-9875
uters	-9876
▁condemn	-9877
17	-9878
ickt	-9879
▁Rob	-9880
▁Militär	-9881
▁Wür	-9882
▁vergleich	-9883
▁Sä	-9884
▁gelungen	-9885
abilities	-9886
▁investig	-9887
▁Flexibilität	-9888
▁payments	-9889
auso	-9890
▁daraus	-9891
▁secret	-9892
▁Mas	-9893
ternen	-9894
wortet	-9895
▁flight	-9896
▁Wechsel	-9897
iertes	-9898
▁sem	-9899
▁limits	-9900
▁update	-9901
▁Reich	-9902
idung	-9903
onenten	-9904
▁sell	-9905
▁Ereignisse	-9906
rupt	-9907
▁cheap	-9908
▁Constitution	-9909
▁geöffnet	-9910
▁erfre	-9911
▁Resort	-9912
▁Ganz	-9913
▁Niveau	-9914
▁goals	-9915
▁Bahnhof	-9916
▁targets	-9917
▁jüngsten	-9918
▁surrounded	-9919
▁Nachdem	-9920
▁obviously	-9921
▁Ausland	-9922
▁tie	-9923
sequently	-9924
management	-9925
▁Cam	-9926
uzz	-9927
▁Marken	-9928
▁Kopf	-9929
▁zunehm	-9930
▁rasch	-9931
zil	-9932
▁vehicle	-9933
reitung	-9934
▁Zahlen	-9935
▁Pool	-9936
elbe	-9937
▁continuing	-9938
kurr	-9939
▁Kohäs	-9940
itar	-9941
rance	-9942
▁schöne	-9943
alty	-9944
▁Wirkung	-9945
▁Hoffnung	-9946
▁colleague	-9947
▁sensitive	-9948
▁Beschäftigungs	-9949
▁rock	-9950
▁successfully	-9951
▁Apparte	-9952
▁Peter	-9953
üb	-9954
umer	-9955
▁Verkauf	-9956
knü	-9957
▁patent	-9958
▁ausländ	-9959
▁elected	-9960
▁informiert	-9961
▁dur	-9962
enswert	-9963
klang	-9964
gefähr	-9965
▁umwelt	-9966
▁Realität	-9967
▁PPE	-9968
▁lauf	-9969
▁Gent	-9970
lichem	-9971
▁someone	-9972
▁näher	-9973
▁Süden	-9974
▁compat	-9975
▁obligations	-9976
▁guter	-9977
isure	-9978
▁festge	-9979
▁surv	-9980
atures	-9981
NL	-9982
▁Botschaft	-9983
abl	-9984
▁decades	-9985
▁bound	-9986
▁sorgfält	-9987
▁situations	-9988
▁por	-9989
utzung	-9990
▁Vorteil	-9991
▁organization	-9992
▁36	-9993
▁ECU	-9994
▁distin	-9995
▁Hinweis	-9996
era	-9997
▁Bla	-9998
▁Garden	-9999
▁exklus	-10000
Ein	-10001
▁benach	-10002
▁yesterday	-10003
TP	-10004
▁correspond	-10005
▁independence	-10006
iam	-10007
▁Aktionen	-10008
▁Weitere	-10009
with	-10010
▁Erde	-10011
orial	-10012
▁store	-10013
▁privile	-10014
UN	-10015
▁Gaz	-10016
▁pred	-10017
▁wachs	-10018
▁gehalten	-10019
▁organised	-10020
▁accessible	-10021
▁(200	-10022
governmental	-10023
▁Datenschutz	-10024
▁aircraft	-10025
ifications	-10026
ähren	-10027
▁minute	-10028
bination	-10029
45	-10030
ela	-10031
▁contents	-10032
▁2010.	-10033
fest	-10034
▁hauptsächlich	-10035
▁erfordert	-10036
▁reject	-10037
▁Located	-10038
gerung	-10039
▁Empfehlungen	-10040
▁Good	-10041
▁niemand	-10042
iov	-10043
▁Agency	-10044
eind	-10045
▁Erwart	-10046
ismen	-10047
▁schneller	-10048
▁nar	-10049
▁ideale	-10050
▁zunehmend	-10051
▁manchmal	-10052
▁title	-10053
▁asking	-10054
▁category	-10055
▁AR	-10056
▁equality	-10057
vereign	-10058
▁race	-10059
reitet	-10060
▁Journal	-10061
▁sovereign	-10062
▁Feld	-10063
▁argument	-10064
▁Summit	-10065
▁Farben	-10066
▁treten	-10067
▁prospect	-10068
▁recommendations	-10069
▁Jac	-10070
▁expenditure	-10071
▁Mail	-10072
▁Betriebs	-10073
Or	-10074
▁Mitteln	-10075
▁beachten	-10076
▁Gegenteil	-10077
▁Slow	-10078
▁mittl	-10079
ünfte	-10080
▁Ros	-10081
▁balanced	-10082
▁Kooperation	-10083
ategorie	-10084
handels	-10085
▁changing	-10086
ipe	-10087
oret	-10088
apter	-10089
▁Sur	-10090
gbarkeit	-10091
▁geschieht	-10092
▁physical	-10093
▁pun	-10094
▁einsch	-10095
▁überein	-10096
igned	-10097
▁satellite	-10098
▁allgemeine	-10099
▁merely	-10100
▁Experten	-10101
▁Architektur	-10102
▁ep	-10103
▁herzlich	-10104
▁furnished	-10105
▁Teilen	-10106
▁Programms	-10107
wers	-10108
▁rig	-10109
▁Dimension	-10110
▁einzigen	-10111
▁participants	-10112
▁Marketing	-10113
▁möglichen	-10114
De	-10115
▁kaufen	-10116
▁Agentur	-10117
▁consists	-10118
▁abhäng	-10119
▁approximately	-10120
▁Both	-10121
▁Treffen	-10122
▁landscape	-10123
▁communities	-10124
▁Kontroll	-10125
▁dé	-10126
▁einverstanden	-10127
abled	-10128
▁Fraktionen	-10129
imal	-10130
tellect	-10131
▁sobald	-10132
▁festgestellt	-10133
▁Entsp	-10134
inning	-10135
▁Nik	-10136
▁gebe	-10137
erry	-10138
▁Arbeitsmarkt	-10139
cast	-10140
▁reve	-10141
▁Voraussetzungen	-10142
cap	-10143
▁türk	-10144
▁damals	-10145
obility	-10146
▁Schm	-10147
▁Bedarf	-10148
▁außerord	-10149
▁philosoph	-10150
▁Beschluss	-10151
▁smaller	-10152
▁species	-10153
▁ap	-10154
▁dete	-10155
artner	-10156
▁lake	-10157
▁nationaler	-10158
▁recovery	-10159
▁dig	-10160
▁contemporary	-10161
▁Beob	-10162
otten	-10163
▁nearly	-10164
verse	-10165
▁acts	-10166
▁enhan	-10167
▁selten	-10168
▁vieler	-10169
▁Manager	-10170
▁waiting	-10171
▁jungen	-10172
▁putting	-10173
▁Trek	-10174
▁globale	-10175
▁Those	-10176
▁spricht	-10177
odurch	-10178
▁mittels	-10179
▁Blog	-10180
▁Hälfte	-10181
▁>	-10182
▁mechanism	-10183
▁unternommen	-10184
asen	-10185
▁slight	-10186
▁Gebiete	-10187
▁Gesetzgebung	-10188
wiesen	-10189
utr	-10190
▁Square	-10191
inent	-10192
▁leads	-10193
▁preserv	-10194
▁zugleich	-10195
iffe	-10196
▁Liberalisierung	-10197
▁bars	-10198
Bahn	-10199
▁swe	-10200
▁nachhaltige	-10201
▁convention	-10202
▁Sun	-10203
▁Enjoy	-10204
▁intention	-10205
▁factor	-10206
ählten	-10207
▁Alban	-10208
▁Phase	-10209
ränkungen	-10210
SV	-10211
▁Gut	-10212
▁Vom	-10213
▁Merk	-10214
▁Palestinian	-10215
()	-10216
▁glad	-10217
▁1995	-10218
wurf	-10219
▁THE	-10220
▁Lord	-10221
▁übernommen	-10222
GO	-10223
▁vorgeschlagenen	-10224
▁Schne	-10225
▁Bestandteil	-10226
information	-10227
▁manufacturing	-10228
bürger	-10229
▁Beihilfen	-10230
▁75	-10231
annung	-10232
▁write	-10233
real	-10234
▁Männer	-10235
▁disposal	-10236
ausende	-10237
▁Zoll	-10238
▁cool	-10239
▁gewünsch	-10240
▁Mitgliedern	-10241
▁Mitglieds	-10242
▁webs	-10243
▁Schulden	-10244
▁bringing	-10245
▁Ebenso	-10246
▁Hauptstadt	-10247
▁prevention	-10248
App	-10249
▁causes	-10250
▁teilen	-10251
irmed	-10252
▁seeking	-10253
▁Chem	-10254
▁count	-10255
▁medizin	-10256
▁Jahrzehn	-10257
▁contained	-10258
▁planned	-10259
▁anbieten	-10260
▁Korea	-10261
▁resulting	-10262
▁regelmäßig	-10263
▁gewiss	-10264
▁250	-10265
▁doll	-10266
▁governance	-10267
akete	-10268
▁beob	-10269
▁persönliche	-10270
▁guaranteed	-10271
utzer	-10272
▁operate	-10273
Adr	-10274
cco	-10275
▁sec	-10276
otenzial	-10277
▁ID	-10278
▁assum	-10279
ulating	-10280
▁Ban	-10281
IE	-10282
▁dynamic	-10283
▁18.	-10284
wegs	-10285
▁grounds	-10286
▁Grundrechte	-10287
▁Fischer	-10288
iquid	-10289
▁quot	-10290
▁submit	-10291
▁pointed	-10292
▁wodurch	-10293
▁blog	-10294
▁brings	-10295
vely	-10296
▁Pic	-10297
▁Touristen	-10298
▁valu	-10299
▁EN	-10300
ints	-10301
▁MEP	-10302
▁schn	-10303
▁erneuer	-10304
▁surpr	-10305
▁Island	-10306
▁praktisch	-10307
istenz	-10308
▁Friedens	-10309
▁trend	-10310
ifellos	-10311
▁nav	-10312
ermaßen	-10313
▁sage	-10314
▁acceptable	-10315
mo	-10316
krat	-10317
▁wichtigste	-10318
▁9.	-10319
▁fraud	-10320
arium	-10321
▁Teilnahme	-10322
▁print	-10323
▁ung	-10324
igern	-10325
▁fuel	-10326
▁Wachstums	-10327
▁vulner	-10328
▁Niederl	-10329
▁retain	-10330
▁examples	-10331
▁JavaScript	-10332
▁zählen	-10333
▁III	-10334
▁Rules	-10335
▁conclude	-10336
-200	-10337
iot	-10338
▁acht	-10339
▁Internationalen	-10340
▁underg	-10341
▁griech	-10342
▁Sweden	-10343
▁Nichtraucher	-10344
äger	-10345
car	-10346
istungs	-10347
artet	-10348
▁Gesam	-10349
▁Effizienz	-10350
ssystem	-10351
▁Bol	-10352
▁traditionellen	-10353
▁verk	-10354
▁("	-10355
▁Zuf	-10356
▁Repr	-10357
▁Klimaanlage	-10358
▁4,	-10359
zwungen	-10360
▁sieben	-10361
▁capable	-10362
▁betroffenen	-10363
▁OS	-10364
▁weg	-10365
oster	-10366
hel	-10367
▁pleasure	-10368
▁toler	-10369
▁kleiner	-10370
▁beschäftigt	-10371
iring	-10372
▁2009,	-10373
▁vorschlagen	-10374
▁registration	-10375
▁echte	-10376
ablen	-10377
▁multiple	-10378
▁Los	-10379
▁Energy	-10380
▁Welche	-10381
▁lov	-10382
▁Sprach	-10383
▁explain	-10384
▁Akte	-10385
▁Eth	-10386
mlich	-10387
endung	-10388
ventions	-10389
▁Prüfung	-10390
▁Via	-10391
▁Kaffe	-10392
▁optimal	-10393
▁Landschaft	-10394
äume	-10395
Gen	-10396
ques	-10397
▁pill	-10398
▁Gefühl	-10399
▁primary	-10400
▁deutsche	-10401
▁grammat	-10402
▁industries	-10403
▁Dort	-10404
▁band	-10405
▁strengthening	-10406
alys	-10407
▁lag	-10408
ierend	-10409
▁sichern	-10410
▁lau	-10411
▁berecht	-10412
26	-10413
cling	-10414
▁Fax	-10415
▁spaces	-10416
▁Erhöhung	-10417
2010	-10418
uttle	-10419
▁Lag	-10420
lebt	-10421
")	-10422
▁BM	-10423
▁zone	-10424
▁Royal	-10425
aschen	-10426
▁begann	-10427
▁driving	-10428
▁attacks	-10429
ky	-10430
▁Glas	-10431
▁Einkaufs	-10432
▁Pop	-10433
▁identity	-10434
CC	-10435
▁letter	-10436
▁Ordnung	-10437
▁kürzlich	-10438
▁Überprüfung	-10439
▁Thanks	-10440
akers	-10441
▁sets	-10442
▁steel	-10443
▁Schwar	-10444
inations	-10445
▁Anpassung	-10446
▁Streit	-10447
]].	-10448
▁Andre	-10449
▁fashion	-10450
richtlinie	-10451
▁password	-10452
odes	-10453
▁elegan	-10454
gesellschaften	-10455
iegen	-10456
eshalb	-10457
▁Apartment	-10458
▁mel	-10459
▁divid	-10460
▁weiteres	-10461
▁Chamber	-10462
▁southern	-10463
▁Laufe	-10464
▁adequate	-10465
wechs	-10466
▁fällt	-10467
ermal	-10468
ampagne	-10469
PC	-10470
▁Prakt	-10471
▁Norden	-10472
▁siehe	-10473
▁addressed	-10474
nes	-10475
legte	-10476
▁patients	-10477
▁Klimawandel	-10478
▁versions	-10479
▁proportion	-10480
▁Jose	-10481
fangen	-10482
▁School	-10483
▁Details	-10484
▁besseren	-10485
iene	-10486
▁ta	-10487
▁Aufgrund	-10488
ktop	-10489
▁association	-10490
station	-10491
▁thereby	-10492
▁Ausnahme	-10493
▁Gedanken	-10494
▁consensus	-10495
▁expensive	-10496
▁zunehmen	-10497
▁testing	-10498
▁hergestellt	-10499
▁Vorbereitung	-10500
selben	-10501
sprach	-10502
place	-10503
▁Inc	-10504
▁talks	-10505
▁Zimmern	-10506
▁Lu	-10507
ktions	-10508
▁Class	-10509
▁irgende	-10510
▁reagieren	-10511
▁Dutch	-10512
▁explan	-10513
▁190	-10514
splan	-10515
asten	-10516
▁Bosn	-10517
phrase	-10518
▁Alliance	-10519
log	-10520
produktion	-10521
▁truth	-10522
▁Pflicht	-10523
▁Maria	-10524
▁attend	-10525
ancen	-10526
▁Publik	-10527
▁River	-10528
▁Eltern	-10529
▁withdraw	-10530
fers	-10531
▁Methode	-10532
▁schools	-10533
sprüche	-10534
▁Ferienwohn	-10535
▁diskutiert	-10536
▁Two	-10537
iling	-10538
▁Absicht	-10539
▁safeguard	-10540
▁extreme	-10541
▁Revolution	-10542
▁kinds	-10543
UT	-10544
▁vielfält	-10545
▁Morgen	-10546
iest	-10547
▁gemeinschaft	-10548
organisationen	-10549
aces	-10550
▁Übern	-10551
▁Cypr	-10552
▁Methoden	-10553
igsten	-10554
▁kontext	-10555
rant	-10556
▁Press	-10557
▁regret	-10558
▁discussing	-10559
issens	-10560
▁turned	-10561
▁Charter	-10562
hann	-10563
▁Romania	-10564
▁Koordinierung	-10565
▁junge	-10566
▁Rotary	-10567
gänglich	-10568
▁Fähigkeit	-10569
▁previously	-10570
▁copy	-10571
▁incorpor	-10572
▁primarily	-10573
▁requested	-10574
▁willkommen	-10575
▁Stadtzentrum	-10576
▁andererseits	-10577
▁Direkt	-10578
enture	-10579
▁consolid	-10580
▁Argent	-10581
▁betrie	-10582
▁respekt	-10583
▁Veranstaltungen	-10584
▁inhab	-10585
going	-10586
▁Rund	-10587
▁blue	-10588
▁Tit	-10589
▁aktual	-10590
▁Veröffent	-10591
▁id	-10592
▁master	-10593
üben	-10594
▁Gästen	-10595
▁einzelne	-10596
gin	-10597
▁phase	-10598
kunden	-10599
▁seitens	-10600
▁Angriff	-10601
lichten	-10602
▁Old	-10603
▁eight	-10604
▁1980	-10605
lebnis	-10606
▁remove	-10607
▁nations	-10608
▁amt	-10609
▁Rumän	-10610
▁capt	-10611
▁flow	-10612
▁Reaktion	-10613
▁liability	-10614
▁Diskriminierung	-10615
pielt	-10616
▁jemand	-10617
▁mail	-10618
ported	-10619
atlant	-10620
▁authent	-10621
▁finde	-10622
▁investments	-10623
strategie	-10624
▁sinnvoll	-10625
icon	-10626
▁bio	-10627
▁Autor	-10628
▁orders	-10629
bereiche	-10630
▁leadership	-10631
DR	-10632
zahlung	-10633
ikas	-10634
ress	-10635
sid	-10636
ädt	-10637
▁bere	-10638
▁dah	-10639
lesen	-10640
▁Sonn	-10641
position	-10642
▁Financial	-10643
▁akzeptiert	-10644
▁führenden	-10645
▁journal	-10646
▁Inseln	-10647
▁Dublin	-10648
nahm	-10649
▁Dach	-10650
▁Liebe	-10651
▁Freizeit	-10652
iern	-10653
▁audio	-10654
ource	-10655
▁determined	-10656
sein	-10657
▁gewählt	-10658
aks	-10659
▁Nice	-10660
▁Alter	-10661
▁verstärkt	-10662
▁bewegen	-10663
▁verteid	-10664
▁opposite	-10665
ahnen	-10666
▁angeht	-10667
licit	-10668
▁representative	-10669
▁Verbesser	-10670
▁Brazil	-10671
▁delivered	-10672
▁fried	-10673
▁Pin	-10674
▁Mach	-10675
▁Formular	-10676
▁Autob	-10677
▁#	-10678
▁evaluation	-10679
▁Graf	-10680
▁leiden	-10681
▁demokratische	-10682
▁Willen	-10683
▁begonnen	-10684
▁Flash	-10685
▁Despite	-10686
▁Tai	-10687
border	-10688
▁cook	-10689
▁nation	-10690
gramms	-10691
▁Vision	-10692
▁Tiere	-10693
▁disch	-10694
▁corner	-10695
▁Anliegen	-10696
▁accounts	-10697
▁named	-10698
▁ländlichen	-10699
Der	-10700
rest	-10701
rist	-10702
▁Provin	-10703
▁Wegen	-10704
▁genü	-10705
▁Valle	-10706
▁Zustand	-10707
▁48	-10708
▁imper	-10709
wirt	-10710
entscheid	-10711
▁anerkannt	-10712
▁behandeln	-10713
▁bon	-10714
▁dealt	-10715
▁gespe	-10716
▁15.	-10717
▁books	-10718
▁Bio	-10719
▁onto	-10720
▁Westen	-10721
▁mutual	-10722
enter	-10723
igerung	-10724
stoffen	-10725
▁technological	-10726
▁Hor	-10727
MO	-10728
dete	-10729
▁betont	-10730
tten	-10731
▁laut	-10732
▁thre	-10733
▁diesbe	-10734
lege	-10735
▁sicherstellen	-10736
iser	-10737
▁bran	-10738
▁Rem	-10739
▁Unterschiede	-10740
,”	-10741
▁Tom	-10742
▁fif	-10743
▁verlieren	-10744
▁manufacturers	-10745
kurs	-10746
▁Berücksicht	-10747
kret	-10748
▁Verhältnis	-10749
▁waters	-10750
plant	-10751
▁conduct	-10752
▁prepare	-10753
▁berühmten	-10754
▁territorial	-10755
tellectual	-10756
anger	-10757
▁sanctions	-10758
folio	-10759
▁snow	-10760
sph	-10761
▁diversity	-10762
verw	-10763
▁Minutes	-10764
▁Umständen	-10765
▁0,	-10766
▁umgeben	-10767
kund	-10768
▁Follow	-10769
▁17.	-10770
metho	-10771
▁vorbe	-10772
▁(19	-10773
▁Fälle	-10774
▁diverse	-10775
cin	-10776
▁dry	-10777
▁fand	-10778
▁schlecht	-10779
▁positiven	-10780
zeß	-10781
▁Amerika	-10782
▁Express	-10783
imately	-10784
▁überzeugen	-10785
absicht	-10786
▁Fenster	-10787
▁systemat	-10788
ungsverfahren	-10789
oß	-10790
▁dritten	-10791
▁Kombination	-10792
▁800	-10793
▁meist	-10794
▁exceed	-10795
▁nochmals	-10796
▁repeated	-10797
ady	-10798
▁Rich	-10799
▁skin	-10800
ciliation	-10801
▁AB	-10802
▁wall	-10803
▁gesellschaft	-10804
Tra	-10805
hrt	-10806
▁marked	-10807
▁Jean	-10808
▁barr	-10809
▁5-	-10810
▁Prodi	-10811
▁Os	-10812
▁Stunde	-10813
▁charming	-10814
▁qualified	-10815
▁Dadurch	-10816
reis	-10817
▁spät	-10818
▁ehemaligen	-10819
▁attemp	-10820
▁significantly	-10821
▁moved	-10822
▁bureau	-10823
▁starken	-10824
▁voc	-10825
zur	-10826
▁pension	-10827
abilität	-10828
▁zuverläss	-10829
▁Lö	-10830
▁mechanisms	-10831
▁Kong	-10832
▁noise	-10833
▁Minderheiten	-10834
größ	-10835
▁Einklang	-10836
▁urge	-10837
▁Patent	-10838
▁unanim	-10839
▁Verfügbarkeit	-10840
sec	-10841
▁Ton	-10842
▁amongst	-10843
▁lock	-10844
▁Fluss	-10845
▁feeling	-10846
▁Sud	-10847
▁seien	-10848
▁output	-10849
bereitet	-10850
▁vielmehr	-10851
▁Que	-10852
▁grand	-10853
▁belong	-10854
tehen	-10855
▁Champ	-10856
▁Handeln	-10857
▁transform	-10858
▁Before	-10859
zahlt	-10860
▁runs	-10861
unsten	-10862
▁schließen	-10863
ieties	-10864
▁wiederum	-10865
termine	-10866
ikte	-10867
jährige	-10868
gence	-10869
fügt	-10870
▁hall	-10871
▁Diskussionen	-10872
▁knows	-10873
▁Grenze	-10874
▁spot	-10875
▁Church	-10876
kehren	-10877
▁Unterschied	-10878
kop	-10879
▁Erwach	-10880
▁Roh	-10881
▁Egypt	-10882
▁Premier	-10883
orgnis	-10884
▁helping	-10885
fertigt	-10886
▁improvements	-10887
▁fed	-10888
▁zustimmen	-10889
▁nötig	-10890
▁refugees	-10891
75	-10892
SA	-10893
▁Bedenken	-10894
uj	-10895
iry	-10896
▁launched	-10897
▁Stück	-10898
grundlage	-10899
ulted	-10900
▁heavy	-10901
▁expectations	-10902
▁eye	-10903
▁Spiele	-10904
UM	-10905
cluding	-10906
▁consultation	-10907
venue	-10908
▁100%	-10909
▁Report	-10910
▁120	-10911
▁derzeitigen	-10912
▁unterschiedlich	-10913
öp	-10914
▁Win	-10915
erungs	-10916
▁wait	-10917
TE	-10918
zed	-10919
fare	-10920
▁Ref	-10921
▁dele	-10922
▁Freude	-10923
▁Pflanzen	-10924
▁Hong	-10925
jection	-10926
▁experiences	-10927
35	-10928
▁Know	-10929
▁shape	-10930
▁politisch	-10931
▁Vielleicht	-10932
▁2008.	-10933
gebracht	-10934
▁Adresse	-10935
▁600	-10936
▁relatively	-10937
owned	-10938
uries	-10939
▁bildet	-10940
▁Freunde	-10941
akten	-10942
▁Schwerpunkt	-10943
EF	-10944
▁Swed	-10945
▁läuft	-10946
berecht	-10947
▁GDP	-10948
mechan	-10949
▁reply	-10950
▁ergriffen	-10951
▁vorgenommen	-10952
essor	-10953
iating	-10954
sichts	-10955
▁attitude	-10956
▁straight	-10957
iary	-10958
▁Bor	-10959
▁recommended	-10960
pped	-10961
▁höchst	-10962
▁illustr	-10963
▁Gesetze	-10964
▁expertise	-10965
izont	-10966
▁Kollege	-10967
▁destru	-10968
▁inten	-10969
ispiele	-10970
▁Munich	-10971
▁weltweiten	-10972
▁Perspekt	-10973
▁gewisse	-10974
▁leisure	-10975
▁Zahlungs	-10976
folgerungen	-10977
igence	-10978
gro	-10979
▁Take	-10980
zubauen	-10981
▁Angebote	-10982
▁Satell	-10983
▁treated	-10984
▁requests	-10985
lechter	-10986
▁default	-10987
▁befassen	-10988
▁beruf	-10989
▁configur	-10990
▁5,	-10991
istribution	-10992
asters	-10993
▁Sanktionen	-10994
▁Balt	-10995
▁Kreat	-10996
▁Komment	-10997
▁competence	-10998
▁blood	-10999
meister	-11000
▁streets	-11001
gg	-11002
▁welchen	-11003
züg	-11004
lles	-11005
▁privacy	-11006
▁Voraussetzung	-11007
stände	-11008
▁abhängig	-11009
geiz	-11010
▁switch	-11011
▁bedrooms	-11012
▁Einwanderung	-11013
▁landwirtschaft	-11014
eds	-11015
▁Holl	-11016
▁birth	-11017
▁abgele	-11018
▁speakers	-11019
ст	-11020
ameras	-11021
fä	-11022
▁rot	-11023
▁umfass	-11024
▁presentation	-11025
4-	-11026
ès	-11027
▁Ca	-11028
▁Flä	-11029
▁compliance	-11030
uver	-11031
▁Präs	-11032
▁binding	-11033
▁Johann	-11034
▁genauso	-11035
▁David	-11036
▁Klim	-11037
▁Antworten	-11038
▁consistent	-11039
▁destination	-11040
▁felt	-11041
▁Kunde	-11042
▁München	-11043
▁drugs	-11044
▁arms	-11045
▁Eigenschaften	-11046
handlungs	-11047
▁Jes	-11048
▁engag	-11049
▁websites	-11050
▁lose	-11051
▁estim	-11052
▁Untersuchung	-11053
▁piece	-11054
▁keines	-11055
urm	-11056
stat	-11057
▁trotzdem	-11058
▁führte	-11059
▁permit	-11060
▁browser	-11061
▁Englisch	-11062
▁Dienstleistungs	-11063
▁Rub	-11064
▁taxes	-11065
struction	-11066
geht	-11067
ährt	-11068
▁units	-11069
▁16.	-11070
schaffen	-11071
▁existence	-11072
▁furniture	-11073
▁basiert	-11074
▁Menü	-11075
▁Fac	-11076
▁dishes	-11077
▁User	-11078
▁Atom	-11079
▁Time	-11080
▁Putin	-11081
▁wirksam	-11082
▁flat	-11083
uropäischen	-11084
▁favor	-11085
▁Gewinn	-11086
▁Nachfrage	-11087
▁betreffen	-11088
▁Bek	-11089
▁Theater	-11090
▁13.	-11091
▁Schloss	-11092
Chr	-11093
itime	-11094
iana	-11095
▁Lou	-11096
▁cm	-11097
▁kompliz	-11098
lause	-11099
▁Skype	-11100
spar	-11101
▁entlang	-11102
▁aktuell	-11103
▁Sound	-11104
▁zeich	-11105
▁reicht	-11106
▁Sein	-11107
▁Jack	-11108
▁konkreten	-11109
▁helps	-11110
oples	-11111
▁fordert	-11112
▁Allgemeinen	-11113
▁Dra	-11114
klärung	-11115
vak	-11116
▁Kranken	-11117
▁Schäden	-11118
▁rejected	-11119
▁politicians	-11120
▁Kyoto	-11121
▁sights	-11122
▁höhere	-11123
ichteten	-11124
▁Zul	-11125
▁hoher	-11126
▁deiner	-11127
▁vast	-11128
▁parad	-11129
▁Instit	-11130
▁fantastic	-11131
ror	-11132
▁recognise	-11133
wood	-11134
heber	-11135
▁beiz	-11136
▁proud	-11137
▁resolve	-11138
▁emphasis	-11139
▁Dokumente	-11140
▁individuell	-11141
füllung	-11142
▁Airbus	-11143
▁Signal	-11144
hop	-11145
▁spok	-11146
grad	-11147
▁Datenbank	-11148
▁obligation	-11149
▁Law	-11150
▁Use	-11151
▁rare	-11152
ischung	-11153
politischen	-11154
▁afford	-11155
▁represented	-11156
▁Strategien	-11157
▁liefern	-11158
▁appreciate	-11159
▁older	-11160
▁subsidiar	-11161
▁whe	-11162
▁adj	-11163
▁compensation	-11164
formance	-11165
▁umfassenden	-11166
▁spezial	-11167
▁stations	-11168
▁gepr	-11169
▁wichtiges	-11170
▁dict	-11171
▁bezieht	-11172
▁Technology	-11173
▁Dafür	-11174
▁trial	-11175
▁extension	-11176
bahnhof	-11177
▁reichen	-11178
uds	-11179
▁tests	-11180
▁ziemlich	-11181
ifall	-11182
▁helped	-11183
ettbewerbs	-11184
netz	-11185
onte	-11186
▁regionale	-11187
▁Grundsätze	-11188
▁trees	-11189
▁keeping	-11190
uste	-11191
ätzung	-11192
▁verlangen	-11193
▁exists	-11194
▁senden	-11195
▁parallel	-11196
▁Strukturfonds	-11197
▁vess	-11198
▁wenden	-11199
▁gestern	-11200
theit	-11201
▁Bestell	-11202
▁substances	-11203
▁entered	-11204
▁Maßnahme	-11205
▁Erwä	-11206
▁Radio	-11207
▁Definition	-11208
ergie	-11209
▁Bewegung	-11210
▁Bör	-11211
Mitglied	-11212
rote	-11213
▁religi	-11214
▁Ungleich	-11215
▁engineering	-11216
▁eur	-11217
antly	-11218
▁temperature	-11219
▁plug	-11220
▁Offen	-11221
▁{{	-11222
▁dog	-11223
▁Paper	-11224
▁sprach	-11225
▁Zugriff	-11226
▁Tatsächlich	-11227
läne	-11228
▁bedarf	-11229
▁wild	-11230
▁Zusatz	-11231
▁advantages	-11232
▁Div	-11233
schule	-11234
▁error	-11235
▁thor	-11236
ossen	-11237
▁Britain	-11238
▁Tibet	-11239
▁Wahrheit	-11240
▁Sov	-11241
▁approval	-11242
▁jährlich	-11243
behörden	-11244
86	-11245
▁comply	-11246
▁falsch	-11247
teen	-11248
▁beträgt	-11249
reds	-11250
▁maß	-11251
iform	-11252
▁objects	-11253
▁cold	-11254
▁erhältlich	-11255
▁articles	-11256
▁außergewöhn	-11257
GB	-11258
stance	-11259
▁Straf	-11260
abling	-11261
▁strugg	-11262
tragung	-11263
▁Amts	-11264
▁dinner	-11265
beziehung	-11266
▁Austausch	-11267
uchte	-11268
▁Player	-11269
▁sod	-11270
▁operators	-11271
▁historische	-11272
▁Küste	-11273
▁alter	-11274
▁Set	-11275
▁stone	-11276
atre	-11277
▁emphasise	-11278
▁mini	-11279
▁bekannten	-11280
▁entre	-11281
▁affairs	-11282
wachstum	-11283
ventionen	-11284
▁latter	-11285
ochen	-11286
▁Master	-11287
▁happens	-11288
▁unmittelbar	-11289
▁complic	-11290
▁Essen	-11291
▁Like	-11292
▁obst	-11293
sparte	-11294
▁arrangements	-11295
▁2011	-11296
▁angep	-11297
▁Schule	-11298
▁Exec	-11299
▁adap	-11300
▁Genehm	-11301
code	-11302
quellen	-11303
▁Action	-11304
otte	-11305
oßen	-11306
▁suffering	-11307
ilding	-11308
▁whatever	-11309
▁valuable	-11310
,"	-11311
▁sleep	-11312
zza	-11313
prech	-11314
amerika	-11315
▁Administr	-11316
▁delegation	-11317
wechsel	-11318
▁diseases	-11319
AV	-11320
▁Beweis	-11321
▁danger	-11322
iè	-11323
pol	-11324
▁disaster	-11325
zin	-11326
uführen	-11327
▁Plaza	-11328
▁Profession	-11329
▁Besitz	-11330
▁Verbrechen	-11331
DS	-11332
flug	-11333
what	-11334
▁Suite	-11335
▁Welcome	-11336
▁entspannen	-11337
▁Konsequ	-11338
▁Tim	-11339
▁finding	-11340
▁largely	-11341
▁od	-11342
dessen	-11343
maschinen	-11344
▁erweitert	-11345
vol	-11346
▁centres	-11347
▁Leitlinien	-11348
9)	-11349
▁Krie	-11350
▁threaten	-11351
▁entertainment	-11352
▁TO	-11353
▁geist	-11354
▁Landwirte	-11355
▁applicable	-11356
▁erscheinen	-11357
TER	-11358
rechten	-11359
▁spectac	-11360
▁1000	-11361
▁respective	-11362
▁engl	-11363
▁eröffnet	-11364
▁discharge	-11365
ér	-11366
ruct	-11367
▁Monte	-11368
▁PR	-11369
▁Refer	-11370
hard	-11371
region	-11372
▁Fahrzeug	-11373
▁naturally	-11374
ask	-11375
okument	-11376
▁Erwartungen	-11377
nd	-11378
▁personally	-11379
▁Umweltschutz	-11380
▁Rock	-11381
tellte	-11382
▁Nachrichten	-11383
▁inzwischen	-11384
▁texts	-11385
▁kurzem	-11386
▁involving	-11387
▁Tax	-11388
▁kommun	-11389
▁Ministers	-11390
▁Studenten	-11391
trieben	-11392
▁Safety	-11393
krit	-11394
▁italienischen	-11395
▁verf	-11396
ani	-11397
▁tours	-11398
▁fill	-11399
▁zuge	-11400
trächt	-11401
unktions	-11402
▁zusätzlichen	-11403
▁Hans	-11404
▁gült	-11405
▁Berufs	-11406
▁covers	-11407
▁hostels	-11408
rüstung	-11409
▁Verträge	-11410
▁breat	-11411
▁MySQL	-11412
gelassen	-11413
▁thorough	-11414
üren	-11415
▁Malt	-11416
▁Ferner	-11417
▁Baum	-11418
▁exclusively	-11419
▁Cook	-11420
flächen	-11421
▁millions	-11422
ikes	-11423
▁letzt	-11424
▁spring	-11425
▁whilst	-11426
▁beschrieben	-11427
uing	-11428
inken	-11429
▁opposed	-11430
▁outdoor	-11431
▁Umgang	-11432
▁entdecken	-11433
▁Turn	-11434
▁gather	-11435
▁intend	-11436
wareness	-11437
▁Instead	-11438
▁Empfehlung	-11439
▁officials	-11440
urd	-11441
▁Original	-11442
fällen	-11443
usal	-11444
vec	-11445
▁Heiz	-11446
▁Disc	-11447
▁Wash	-11448
▁solve	-11449
▁Strategy	-11450
▁Ohne	-11451
▁Pay	-11452
▁foll	-11453
ichtbar	-11454
spruchs	-11455
ati	-11456
obe	-11457
▁Mittelpunkt	-11458
▁soft	-11459
▁außen	-11460
▁Fremden	-11461
▁koordin	-11462
▁grundlegenden	-11463
baut	-11464
uens	-11465
märkte	-11466
▁Studie	-11467
erte	-11468
▁Swedish	-11469
▁Materialien	-11470
deten	-11471
▁künftig	-11472
▁journey	-11473
isc	-11474
▁pick	-11475
▁Badezimmer	-11476
▁recognised	-11477
griffe	-11478
far	-11479
▁laufen	-11480
reuung	-11481
▁hilft	-11482
▁underm	-11483
▁Gesicht	-11484
▁mobility	-11485
west	-11486
▁museum	-11487
▁Schweden	-11488
uy	-11489
▁peoples	-11490
hi	-11491
neter	-11492
▁looks	-11493
▁Govern	-11494
▁weather	-11495
acher	-11496
essene	-11497
▁renewable	-11498
,00	-11499
tran	-11500
▁Frü	-11501
finanz	-11502
▁zugänglich	-11503
▁Il	-11504
▁Infl	-11505
▁verändert	-11506
▁Fer	-11507
Programm	-11508
▁interessiert	-11509
kur	-11510
▁faced	-11511
▁Beratung	-11512
22	-11513
isory	-11514
▁Expl	-11515
▁Mut	-11516
chron	-11517
▁öffnen	-11518
▁confirmed	-11519
kommt	-11520
▁bedeuten	-11521
▁läng	-11522
▁Show	-11523
▁Hindern	-11524
▁conserv	-11525
▁Delegation	-11526
ändler	-11527
▁schwierigen	-11528
▁figure	-11529
▁discovered	-11530
bauen	-11531
▁util	-11532
▁impressive	-11533
▁familiar	-11534
▁determine	-11535
▁Ambiente	-11536
▁gefördert	-11537
▁eigenes	-11538
▁voller	-11539
▁schönsten	-11540
▁Temperatur	-11541
▁incent	-11542
▁Wirklichkeit	-11543
▁geprü	-11544
▁increases	-11545
ungsbereich	-11546
▁zweifellos	-11547
oler	-11548
▁2008,	-11549
lieben	-11550
hme	-11551
▁Ep	-11552
ingesch	-11553
räften	-11554
Th	-11555
▁GNU	-11556
▁direkte	-11557
▁besitzen	-11558
▁intellectual	-11559
▁serves	-11560
▁exceptional	-11561
▁offices	-11562
▁exem	-11563
pers	-11564
▁dans	-11565
▁niemals	-11566
▁creative	-11567
banken	-11568
uden	-11569
rohung	-11570
▁geschrieben	-11571
▁wesentliche	-11572
▁hervorragende	-11573
▁ye	-11574
▁Kandidaten	-11575
andon	-11576
▁Massen	-11577
stehenden	-11578
idden	-11579
▁Director	-11580
itäre	-11581
▁bureauc	-11582
▁kombin	-11583
mes	-11584
▁inf	-11585
▁Export	-11586
▁Eisenbahn	-11587
▁Kategorie	-11588
▁couple	-11589
▁repeat	-11590
▁rank	-11591
▁Angel	-11592
▁Japanese	-11593
▁passengers	-11594
▁Tw	-11595
▁cloth	-11596
▁obstac	-11597
▁obtained	-11598
▁chain	-11599
▁ausgezeichnete	-11600
CS	-11601
▁Kann	-11602
steuer	-11603
▁Franc	-11604
▁protecting	-11605
▁enthus	-11606
urger	-11607
▁amounts	-11608
▁EG	-11609
▁Berichterstat	-11610
▁Sens	-11611
▁Grad	-11612
▁Puert	-11613
▁president	-11614
▁constructive	-11615
liefert	-11616
▁zuerst	-11617
▁organizations	-11618
opt	-11619
▁directives	-11620
▁kulturelle	-11621
▁Dauer	-11622
▁Erinner	-11623
▁beträcht	-11624
actory	-11625
▁equally	-11626
▁leaving	-11627
wendungen	-11628
▁involvement	-11629
new	-11630
▁Nahen	-11631
handelt	-11632
▁33	-11633
▁neuesten	-11634
bil	-11635
azine	-11636
örung	-11637
▁Wähl	-11638
▁newly	-11639
ugnisse	-11640
▁Proced	-11641
▁treaty	-11642
▁reden	-11643
MA	-11644
ml	-11645
▁Elect	-11646
▁Verbesserungen	-11647
▁combating	-11648
▁sofern	-11649
▁Beispiele	-11650
▁strategies	-11651
▁Sad	-11652
▁Update	-11653
▁happening	-11654
▁residence	-11655
▁Alternative	-11656
▁Veranstaltung	-11657
▁weshalb	-11658
▁durchzuführen	-11659
▁Papier	-11660
tedly	-11661
astronom	-11662
▁eyes	-11663
abwe	-11664
▁Übersetzung	-11665
▁automatic	-11666
▁lovely	-11667
▁temporary	-11668
achte	-11669
class	-11670
▁Farb	-11671
gesundheit	-11672
▁removed	-11673
▁Anfragen	-11674
▁ruhigen	-11675
▁natürlichen	-11676
gendes	-11677
▁Einstellung	-11678
service	-11679
▁funktionieren	-11680
päck	-11681
weisung	-11682
▁stake	-11683
▁Ty	-11684
▁Bauern	-11685
▁stattf	-11686
▁George	-11687
▁fühlen	-11688
▁installiert	-11689
▁verändern	-11690
looking	-11691
irk	-11692
▁Angst	-11693
▁healthy	-11694
▁Music	-11695
▁bemüht	-11696
icip	-11697
▁hit	-11698
▁Sund	-11699
▁doesn	-11700
▁reserve	-11701
TS	-11702
▁schwar	-11703
umping	-11704
▁laden	-11705
▁criticism	-11706
legungen	-11707
▁Agrarpolitik	-11708
▁contributions	-11709
izz	-11710
▁sorgt	-11711
▁hospit	-11712
bek	-11713
▁Their	-11714
▁MS	-11715
einrichtungen	-11716
▁ausgezeichneten	-11717
andal	-11718
iga	-11719
ito	-11720
freie	-11721
eler	-11722
▁Kapaz	-11723
▁gewalt	-11724
▁mandate	-11725
▁interessant	-11726
ti	-11727
▁OF	-11728
▁Meinungs	-11729
▁Sauna	-11730
);	-11731
▁Lim	-11732
▁Vir	-11733
▁einfachen	-11734
▁remaining	-11735
light	-11736
▁fighting	-11737
ählte	-11738
▁grundlegende	-11739
▁Four	-11740
▁musste	-11741
▁offenen	-11742
▁Robert	-11743
▁Ladies	-11744
▁entscheidend	-11745
▁getr	-11746
▁ursprünglichen	-11747
adow	-11748
▁Burg	-11749
▁Viertel	-11750
▁ignor	-11751
▁depends	-11752
aal	-11753
▁qualifiz	-11754
holen	-11755
▁Steuern	-11756
▁Stahl	-11757
▁handling	-11758
▁Brasil	-11759
▁impression	-11760
▁abroad	-11761
▁inflation	-11762
institution	-11763
schirm	-11764
▁Nahrungsmittel	-11765
inos	-11766
▁pattern	-11767
-/	-11768
apest	-11769
▁prove	-11770
▁requirement	-11771
▁schreiben	-11772
ey	-11773
▁gelegt	-11774
VI	-11775
▁Termin	-11776
ipel	-11777
▁Luxembourg	-11778
täus	-11779
▁creates	-11780
▁restrictions	-11781
▁EP	-11782
▁2.0	-11783
▁communications	-11784
▁trifft	-11785
▁в	-11786
aul	-11787
▁14.	-11788
▁boat	-11789
▁accom	-11790
▁präsentiert	-11791
▁Überzeugung	-11792
▁Engine	-11793
▁Anti	-11794
▁Mall	-11795
▁advoc	-11796
▁stimmt	-11797
▁preparation	-11798
▁balcony	-11799
▁USD	-11800
gemäß	-11801
▁Jedes	-11802
▁decis	-11803
▁essen	-11804
▁Normen	-11805
▁Ren	-11806
▁remote	-11807
▁gene	-11808
▁2007.	-11809
▁menschlichen	-11810
▁List	-11811
▁Aktien	-11812
▁volume	-11813
▁Krisen	-11814
▁richten	-11815
▁höchsten	-11816
én	-11817
▁Erholung	-11818
▁älter	-11819
▁dining	-11820
▁charges	-11821
▁detaill	-11822
▁returned	-11823
100	-11824
▁aufzunehmen	-11825
▁license	-11826
arma	-11827
iva	-11828
▁issued	-11829
▁Ausgangspunkt	-11830
49	-11831
▁push	-11832
▁Ungar	-11833
▁awareness	-11834
▁umzusetzen	-11835
▁Hostelsclub	-11836
▁universal	-11837
TML	-11838
Adresse	-11839
▁spanischen	-11840
holders	-11841
▁kommer	-11842
▁surroundings	-11843
27	-11844
▁controll	-11845
▁reserves	-11846
Vers	-11847
▁acquis	-11848
nischen	-11849
▁Croatia	-11850
entions	-11851
▁mur	-11852
▁1994	-11853
▁lobby	-11854
▁inspir	-11855
▁debates	-11856
▁collective	-11857
▁starten	-11858
▁riesigen	-11859
▁phen	-11860
▁Armen	-11861
unicip	-11862
▁Optim	-11863
▁Zentralbank	-11864
istry	-11865
▁Town	-11866
▁gezogen	-11867
▁vous	-11868
▁betreffenden	-11869
inational	-11870
▁schnelle	-11871
▁Box	-11872
▁Küsten	-11873
▁achten	-11874
▁inhabit	-11875
▁suite	-11876
▁cancel	-11877
▁ausgesprochen	-11878
rd	-11879
meldung	-11880
verletz	-11881
▁abgelehnt	-11882
▁Weiß	-11883
▁UNO	-11884
▁Secret	-11885
▁Ausstattung	-11886
stood	-11887
▁Bucht	-11888
gä	-11889
enturen	-11890
isierungs	-11891
ML	-11892
▁Life	-11893
ighten	-11894
▁anwes	-11895
▁prohib	-11896
grenzung	-11897
▁beraten	-11898
▁derartige	-11899
▁firstly	-11900
▁bekämpfen	-11901
col	-11902
not	-11903
▁Verk	-11904
▁dritte	-11905
▁characteristics	-11906
▁Caf	-11907
▁kurze	-11908
▁Aqu	-11909
▁einerseits	-11910
behörde	-11911
▁Arme	-11912
▁derart	-11913
reb	-11914
iday	-11915
▁Kommun	-11916
▁identify	-11917
▁renovated	-11918
ucher	-11919
▁Geräte	-11920
▁opinions	-11921
▁übernimmt	-11922
▁rapporteurs	-11923
▁Ath	-11924
▁gets	-11925
▁Strukturen	-11926
▁maintained	-11927
▁verursacht	-11928
▁Krankheiten	-11929
▁organisiert	-11930
▁breite	-11931
▁Reisen	-11932
▁decorated	-11933
oni	-11934
▁faith	-11935
▁operational	-11936
Fl	-11937
▁BIP	-11938
▁schließ	-11939
▁contracts	-11940
▁gratulieren	-11941
▁sla	-11942
▁Geschmack	-11943
▁extraordin	-11944
gänge	-11945
▁cer	-11946
▁coher	-11947
▁classic	-11948
▁leistungs	-11949
▁contrast	-11950
▁Kroat	-11951
cor	-11952
▁messages	-11953
äumt	-11954
▁cry	-11955
reichung	-11956
▁Through	-11957
macht	-11958
▁gold	-11959
▁Canada	-11960
▁Gentoo	-11961
▁lautet	-11962
▁Garantie	-11963
loyed	-11964
zellen	-11965
▁Zentr	-11966
▁cab	-11967
▁dich	-11968
▁commun	-11969
▁Tagung	-11970
▁gebaut	-11971
▁erlauben	-11972
▁resolutions	-11973
▁worse	-11974
▁Bulgaria	-11975
▁album	-11976
▁veran	-11977
▁perfekt	-11978
▁liberalisation	-11979
▁irre	-11980
modell	-11981
▁battle	-11982
▁gewonnen	-11983
▁walls	-11984
wirkung	-11985
fined	-11986
▁anstatt	-11987
▁fee	-11988
▁verschiedener	-11989
ateful	-11990
arl	-11991
▁Pia	-11992
gut	-11993
▁catalog	-11994
▁Geschäft	-11995
▁zählt	-11996
material	-11997
td	-11998
▁beseit	-11999
▁Harmonisierung	-12000
arkt	-12001
▁precise	-12002
▁zufolge	-12003
▁Internets	-12004
inuier	-12005
cles	-12006
▁Prop	-12007
▁sauna	-12008
▁reported	-12009
▁volunt	-12010
▁investors	-12011
▁Noch	-12012
▁Year	-12013
▁buchen	-12014
Produ	-12015
forschung	-12016
▁traditions	-12017
▁abgesch	-12018
aling	-12019
ährung	-12020
▁alarm	-12021
▁conflicts	-12022
▁schafft	-12023
▁erheblich	-12024
▁künftigen	-12025
▁ausgewogen	-12026
▁abol	-12027
▁dark	-12028
▁sin	-12029
▁ausgeschlossen	-12030
center	-12031
▁Executive	-12032
▁Sat	-12033
▁smo	-12034
mitten	-12035
▁verlangt	-12036
rufen	-12037
▁Konsens	-12038
▁Late	-12039
▁gelöst	-12040
▁supposed	-12041
▁Washington	-12042
angebot	-12043
▁gone	-12044
Se	-12045
ittees	-12046
▁Planung	-12047
▁hundreds	-12048
▁regularly	-12049
▁sexual	-12050
▁anschließen	-12051
▁youth	-12052
▁Punkten	-12053
▁Verfahrens	-12054
▁soweit	-12055
▁Vermögen	-12056
▁involve	-12057
▁hardware	-12058
uliert	-12059
▁Standort	-12060
▁auftreten	-12061
gie	-12062
igend	-12063
▁einzigartige	-12064
▁37	-12065
▁SO	-12066
▁schne	-12067
▁Gestaltung	-12068
anen	-12069
grenzen	-12070
▁wettbewerbs	-12071
▁Inf	-12072
▁faster	-12073
▁legend	-12074
▁gender	-12075
▁Bestellung	-12076
iny	-12077
liste	-12078
▁MEPs	-12079
ätigung	-12080
▁mögliche	-12081
zne	-12082
▁Monetary	-12083
▁accompan	-12084
▁facilitate	-12085
weite	-12086
▁zentralen	-12087
aller	-12088
▁Thomas	-12089
▁Indones	-12090
▁Abschnitt	-12091
▁Regime	-12092
▁Ret	-12093
▁cable	-12094
▁Tschech	-12095
▁fordere	-12096
standards	-12097
ruppen	-12098
ziplin	-12099
▁uneingesch	-12100
▁Vice	-12101
▁Verring	-12102
▁Kilometer	-12103
tele	-12104
▁enh	-12105
▁Farbe	-12106
lastung	-12107
▁annehmen	-12108
führte	-12109
▁Behinder	-12110
▁intensiv	-12111
▁angesehen	-12112
▁appoint	-12113
ikaner	-12114
▁conducted	-12115
cohol	-12116
▁transportation	-12117
aun	-12118
▁aftern	-12119
▁load	-12120
▁si	-12121
azier	-12122
▁Halb	-12123
▁Award	-12124
▁Gegend	-12125
%,	-12126
erten	-12127
▁Problems	-12128
▁Rumänien	-12129
▁Fähigkeiten	-12130
▁Wil	-12131
▁Zwei	-12132
▁Marina	-12133
▁witness	-12134
▁Hohen	-12135
▁Stabilitäts	-12136
▁WLAN	-12137
▁owner	-12138
▁Umfeld	-12139
▁regulatory	-12140
TR	-12141
berge	-12142
▁topic	-12143
▁Procedure	-12144
uite	-12145
▁Nap	-12146
water	-12147
▁Word	-12148
▁intensive	-12149
▁recommendation	-12150
decken	-12151
▁Maastr	-12152
▁zurückge	-12153
dire	-12154
einen	-12155
▁properties	-12156
lieb	-12157
werb	-12158
▁Übereinstimmung	-12159
4-0	-12160
▁einig	-12161
▁Ausführungen	-12162
▁BSE	-12163
▁Wolf	-12164
▁artist	-12165
erechtigkeit	-12166
▁northern	-12167
▁Prin	-12168
▁iron	-12169
▁meat	-12170
▁Agricult	-12171
ältigen	-12172
▁Polish	-12173
▁parents	-12174
▁Hilfs	-12175
▁Ausstellung	-12176
▁vereinbar	-12177
▁Viet	-12178
▁bekomm	-12179
osis	-12180
▁Ware	-12181
▁joined	-12182
▁Zuständigkeit	-12183
AB	-12184
läut	-12185
vant	-12186
▁nachhaltigen	-12187
▁Regen	-12188
table	-12189
▁verständ	-12190
▁phenomen	-12191
▁Wild	-12192
uers	-12193
▁customs	-12194
▁durchführen	-12195
▁drawing	-12196
oria	-12197
▁900	-12198
▁Blut	-12199
▁Schuld	-12200
▁Lager	-12201
▁career	-12202
istern	-12203
▁dates	-12204
▁kurzfrist	-12205
▁Verd	-12206
▁displayed	-12207
▁zut	-12208
▁mitten	-12209
▁Polizei	-12210
▁quarter	-12211
▁somewhat	-12212
▁metal	-12213
bi	-12214
▁erör	-12215
▁holding	-12216
▁terrorist	-12217
▁Eis	-12218
▁Polit	-12219
▁ultimately	-12220
orca	-12221
▁enfor	-12222
▁beabsicht	-12223
▁continent	-12224
8)	-12225
▁avec	-12226
▁stylish	-12227
▁ungefähr	-12228
64	-12229
▁sehe	-12230
▁recip	-12231
▁worry	-12232
▁Balkan	-12233
▁kurzen	-12234
▁expansion	-12235
▁performed	-12236
udes	-12237
▁east	-12238
essions	-12239
rett	-12240
▁schwed	-12241
▁aufgefordert	-12242
▁früheren	-12243
▁define	-12244
▁ehrgeiz	-12245
▁vacation	-12246
▁abandon	-12247
care	-12248
▁bud	-12249
▁noted	-12250
▁Vorschlägen	-12251
asche	-12252
▁Inner	-12253
▁Vater	-12254
▁Congress	-12255
▁deals	-12256
▁interior	-12257
▁beglückwünschen	-12258
▁amaz	-12259
▁unent	-12260
▁updated	-12261
onymous	-12262
▁Wird	-12263
▁unfor	-12264
▁verstanden	-12265
▁connections	-12266
▁electricity	-12267
wald	-12268
▁kontinuier	-12269
ößen	-12270
▁verbringen	-12271
ete	-12272
ergeb	-12273
▁drop	-12274
passen	-12275
▁minority	-12276
▁parliaments	-12277
▁chinesischen	-12278
deb	-12279
▁Tel	-12280
▁answers	-12281
▁Drittländern	-12282
izer	-12283
▁Block	-12284
▁sodass	-12285
▁bezahlen	-12286
но	-12287
▁präz	-12288
▁zugunsten	-12289
▁frequently	-12290
ef	-12291
schiedet	-12292
ci	-12293
stanz	-12294
kreis	-12295
▁Gener	-12296
▁settings	-12297
reffen	-12298
▁Festlegung	-12299
▁verabschiedet	-12300
▁ermut	-12301
point	-12302
minuten	-12303
▁consc	-12304
icans	-12305
lared	-12306
▁Temp	-12307
iessen	-12308
▁Himm	-12309
▁visa	-12310
unning	-12311
▁collect	-12312
icherungs	-12313
▁Schatten	-12314
ypern	-12315
▁bezug	-12316
▁hervorheben	-12317
▁Geheim	-12318
▁demanding	-12319
usted	-12320
▁Ausgabe	-12321
▁Arbeitsplätzen	-12322
▁driver	-12323
▁Camping	-12324
lässlich	-12325
▁Ausführung	-12326
▁towns	-12327
▁widely	-12328
▁Automobil	-12329
uese	-12330
wing	-12331
▁ought	-12332
▁Kontext	-12333
▁Mold	-12334
▁parlament	-12335
▁hängt	-12336
▁ausgestatte	-12337
▁bestätigen	-12338
▁Brand	-12339
zeichnis	-12340
▁Gleichgewicht	-12341
aled	-12342
▁Straß	-12343
ivals	-12344
▁Sonne	-12345
▁Einheit	-12346
▁Drittens	-12347
▁react	-12348
▁produziert	-12349
▁techniques	-12350
related	-12351
▁Kas	-12352
minute	-12353
▁erwähn	-12354
▁Vorbe	-12355
▁bottom	-12356
▁seeing	-12357
▁Urspr	-12358
▁label	-12359
▁divided	-12360
▁emergency	-12361
ifies	-12362
▁Rent	-12363
▁zuständigen	-12364
iox	-12365
iftung	-12366
▁follows	-12367
beauftrag	-12368
▁notwendige	-12369
bart	-12370
▁Empf	-12371
▁Trag	-12372
▁anspruchs	-12373
▁Är	-12374
▁organized	-12375
▁entschlossen	-12376
▁migration	-12377
▁GU	-12378
▁islands	-12379
▁trib	-12380
▁ausgesetzt	-12381
▁ster	-12382
▁Cyprus	-12383
▁Audio	-12384
▁Buchung	-12385
▁verhindert	-12386
▁öffentlich	-12387
▁hostel	-12388
▁Websites	-12389
▁unmöglich	-12390
▁Dusche	-12391
▁Struct	-12392
▁Gewicht	-12393
▁entwickelten	-12394
iera	-12395
▁gewissen	-12396
▁Arbeitsplatz	-12397
▁drug	-12398
▁tail	-12399
▁HD	-12400
▁ethnic	-12401
▁interessante	-12402
▁father	-12403
▁Verringerung	-12404
üler	-12405
▁Prüf	-12406
▁grateful	-12407
▁beschränkt	-12408
schm	-12409
▁entdeck	-12410
▁Training	-12411
asions	-12412
▁mother	-12413
orter	-12414
ausend	-12415
▁Speicher	-12416
▁Faktoren	-12417
▁Max	-12418
orama	-12419
▁invite	-12420
pen	-12421
otive	-12422
▁Sony	-12423
schäd	-12424
▁emerging	-12425
▁Prinzipien	-12426
aj	-12427
▁Übereinkommen	-12428
▁cash	-12429
▁Whether	-12430
▁statistics	-12431
на	-12432
▁Redner	-12433
bro	-12434
acion	-12435
▁Anbieter	-12436
▁heat	-12437
▁aufnehmen	-12438
liothek	-12439
▁serviert	-12440
bsp	-12441
▁Gründung	-12442
▁subsidies	-12443
▁ausgezeichnet	-12444
▁KMU	-12445
▁Asien	-12446
▁Ersatz	-12447
▁verringern	-12448
▁Schlafzimmer	-12449
▁Subsid	-12450
▁privat	-12451
▁2010,	-12452
▁Führer	-12453
▁Protection	-12454
OW	-12455
▁2-	-12456
weile	-12457
▁Taiwan	-12458
▁delighted	-12459
▁beeindruck	-12460
▁Plenum	-12461
▁Brenn	-12462
▁behavi	-12463
▁Deutschen	-12464
züge	-12465
▁Klar	-12466
attung	-12467
▁2007,	-12468
fuhr	-12469
rovers	-12470
▁windows	-12471
aya	-12472
▁seat	-12473
▁Partnern	-12474
▁bilateral	-12475
▁library	-12476
▁passiert	-12477
▁relaxation	-12478
▁staatlichen	-12479
▁focused	-12480
▁vorange	-12481
▁welfare	-12482
▁locations	-12483
▁Ski	-12484
▁suites	-12485
▁visible	-12486
▁Partners	-12487
▁arrive	-12488
▁starts	-12489
▁channels	-12490
▁pollution	-12491
29	-12492
▁Earth	-12493
▁castle	-12494
▁verschw	-12495
▁producing	-12496
▁visual	-12497
▁freiwill	-12498
▁wines	-12499
▁Bildungs	-12500
▁magnific	-12501
▁Beziehung	-12502
iffen	-12503
▁westlichen	-12504
▁proved	-12505
iented	-12506
▁planet	-12507
▁verleihen	-12508
▁multinational	-12509
▁Nic	-12510
▁Budapest	-12511
▁geä	-12512
▁Food	-12513
▁bestimmen	-12514
BS	-12515
cean	-12516
▁Jer	-12517
▁erreichbar	-12518
▁Fü	-12519
▁entrance	-12520
ahrt	-12521
▁Abhäng	-12522
▁entsteht	-12523
erkennen	-12524
▁courage	-12525
aser	-12526
▁legt	-12527
entwurf	-12528
würdigkeit	-12529
▁höheren	-12530
har	-12531
▁pieces	-12532
organ	-12533
▁Mexico	-12534
▁geprüft	-12535
▁kontakt	-12536
▁kämpfen	-12537
▁tourists	-12538
örd	-12539
ties	-12540
▁Vier	-12541
etzten	-12542
▁Geschäfte	-12543
▁Quark	-12544
▁protest	-12545
▁Besonders	-12546
▁Fair	-12547
▁Anton	-12548
▁firms	-12549
▁Chinas	-12550
▁Investitions	-12551
▁refr	-12552
▁direkten	-12553
▁österreich	-12554
Man	-12555
▁38	-12556
▁string	-12557
▁involves	-12558
▁geboren	-12559
▁contacts	-12560
▁carbon	-12561
▁gezwungen	-12562
nor	-12563
▁exciting	-12564
▁sorgfältig	-12565
▁inhabitants	-12566
▁proof	-12567
▁mostly	-12568
▁verwand	-12569
28	-12570
▁presents	-12571
▁careful	-12572
▁welchem	-12573
▁Copenhagen	-12574
▁valley	-12575
▁PRO	-12576
▁ticket	-12577
stud	-12578
gestellten	-12579
▁stored	-12580
TC	-12581
günst	-12582
▁protocol	-12583
▁cosy	-12584
▁Funds	-12585
▁showing	-12586
WF	-12587
CHT	-12588
▁flights	-12589
etzte	-12590
aine	-12591
kohol	-12592
▁ball	-12593
▁symp	-12594
▁Holid	-12595
▁interv	-12596
▁explore	-12597
▁abgestimmt	-12598
▁1970	-12599
▁Hof	-12600
▁NGO	-12601
▁heritage	-12602
tendlich	-12603
▁visited	-12604
▁visiting	-12605
▁cutting	-12606
▁geräum	-12607
maschine	-12608
▁wollten	-12609
▁Kohäsion	-12610
▁jetz	-12611
▁input	-12612
▁Prague	-12613
aching	-12614
▁Beiträge	-12615
▁demonstrated	-12616
▁preis	-12617
▁stopp	-12618
▁Sorgen	-12619
▁Gerichte	-12620
▁afternoon	-12621
▁erleichtern	-12622
agers	-12623
▁nine	-12624
▁Access	-12625
oden	-12626
oub	-12627
▁AP	-12628
▁declaration	-12629
▁Semin	-12630
▁maintaining	-12631
▁sac	-12632
▁prosper	-12633
▁collaboration	-12634
Room	-12635
well	-12636
▁gardens	-12637
**	-12638
▁antw	-12639
▁Wünsche	-12640
▁signs	-12641
▁drivers	-12642
36	-12643
arat	-12644
▁Given	-12645
▁Förder	-12646
▁Network	-12647
kontrolle	-12648
▁Bemerkungen	-12649
▁trop	-12650
▁Kräfte	-12651
▁kostet	-12652
▁supplement	-12653
▁Verbindungen	-12654
▁münd	-12655
▁restruct	-12656
ruh	-12657
▁Bö	-12658
rans	-12659
▁indicated	-12660
ulf	-12661
cons	-12662
▁vollständige	-12663
▁awa	-12664
▁Curr	-12665
▁Franz	-12666
▁tatsäch	-12667
diction	-12668
▁definiert	-12669
▁depending	-12670
ibar	-12671
▁Europol	-12672
▁Führungs	-12673
▁demonstrate	-12674
▁Dass	-12675
▁wann	-12676
▁Tarif	-12677
▁geboten	-12678
▁Kompetenz	-12679
level	-12680
▁Dynam	-12681
▁Feuer	-12682
▁understood	-12683
▁Framework	-12684
werks	-12685
▁corresponding	-12686
▁newsp	-12687
▁beschleun	-12688
▁Gesellschaften	-12689
ochter	-12690
▁assets	-12691
▁ongoing	-12692
oli	-12693
izza	-12694
▁Gemeinde	-12695
▁Haftung	-12696
life	-12697
▁Deswegen	-12698
▁stars	-12699
▁Individ	-12700
▁accompanied	-12701
▁Kat	-12702
isses	-12703
▁oral	-12704
▁Krimin	-12705
▁worksh	-12706
▁letztlich	-12707
▁ausgeführt	-12708
▁Wesent	-12709
klass	-12710
▁department	-12711
▁Ltd	-12712
ativer	-12713
▁({{	-12714
vertre	-12715
▁Ziffer	-12716
tein	-12717
onien	-12718
▁Legal	-12719
▁Hostel	-12720
▁Boot	-12721
▁Jede	-12722
▁Author	-12723
▁bilater	-12724
scheidet	-12725
▁Fleisch	-12726
▁Perhaps	-12727
▁hinzufügen	-12728
▁rub	-12729
▁Baltic	-12730
▁Slovak	-12731
▁überras	-12732
undert	-12733
mens	-12734
häuser	-12735
▁lebens	-12736
▁fitness	-12737
▁finished	-12738
▁Einbeziehung	-12739
It	-12740
▁Adobe	-12741
▁Kreuz	-12742
▁Freiheiten	-12743
▁nahezu	-12744
▁34	-12745
Christ	-12746
mäßigen	-12747
▁gespeichert	-12748
▁Luf	-12749
mäßige	-12750
▁echten	-12751
▁Games	-12752
▁Chancen	-12753
▁Ungarn	-12754
▁fab	-12755
▁Mode	-12756
▁Projekten	-12757
▁Schweizer	-12758
▁Vereinbarungen	-12759
▁AD	-12760
icer	-12761
hörigen	-12762
▁rapidly	-12763
▁Einwohner	-12764
▁Portuguese	-12765
▁Aktual	-12766
▁Edition	-12767
▁EZ	-12768
teils	-12769
▁Verbot	-12770
▁Vorschlags	-12771
imedia	-12772
▁mitge	-12773
▁spoken	-12774
▁individuelle	-12775
produkte	-12776
▁spectacular	-12777
mung	-12778
▁era	-12779
ammeln	-12780
▁hervorge	-12781
ätigkeiten	-12782
▁personnel	-12783
▁plenty	-12784
▁Genau	-12785
▁Situ	-12786
▁popul	-12787
▁facility	-12788
Spe	-12789
▁Werbung	-12790
▁bemühen	-12791
▁begrüßt	-12792
▁settlement	-12793
▁verehrte	-12794
liers	-12795
▁Friday	-12796
▁Subsidiar	-12797
fit	-12798
▁Dev	-12799
▁Nos	-12800
▁Vietnam	-12801
▁accident	-12802
▁Format	-12803
▁Spazier	-12804
ées	-12805
langen	-12806
▁breit	-12807
▁fertig	-12808
▁solange	-12809
▁Gesetzes	-12810
▁commission	-12811
gemeinschaft	-12812
▁Außenpolitik	-12813
▁Pact	-12814
▁niedrig	-12815
▁ordnungs	-12816
oot	-12817
▁mittler	-12818
▁geltenden	-12819
rical	-12820
▁coal	-12821
▁Orte	-12822
gor	-12823
▁Road	-12824
▁Konzer	-12825
iforn	-12826
▁lounge	-12827
IDS	-12828
▁smooth	-12829
▁resistance	-12830
udi	-12831
▁Persön	-12832
5%	-12833
▁ven	-12834
arters	-12835
▁Freit	-12836
▁Balkon	-12837
▁heutige	-12838
▁rational	-12839
▁effectiveness	-12840
▁Canon	-12841
▁angemessene	-12842
▁concluded	-12843
▁–,	-12844
▁sah	-12845
arische	-12846
▁nachzu	-12847
▁distingu	-12848
▁didn	-12849
▁dream	-12850
▁Kamera	-12851
▁printing	-12852
▁Niger	-12853
Service	-12854
▁Question	-12855
▁Mikro	-12856
▁theme	-12857
▁erinnert	-12858
▁categories	-12859
▁Naz	-12860
▁Gespräche	-12861
▁russischen	-12862
▁Videos	-12863
▁Zypern	-12864
national	-12865
▁Webseiten	-12866
▁corruption	-12867
fragt	-12868
▁controlled	-12869
geräte	-12870
ography	-12871
▁heating	-12872
aux	-12873
pping	-12874
▁Medik	-12875
▁Energien	-12876
▁Interess	-12877
▁vorlegen	-12878
▁uncertain	-12879
▁Maastricht	-12880
ulen	-12881
▁Verpack	-12882
hone	-12883
while	-12884
ausschuß	-12885
▁Gipf	-12886
▁bestehende	-12887
schriften	-12888
▁6,	-12889
▁replaced	-12890
ulin	-12891
▁sad	-12892
iefer	-12893
rak	-12894
nitten	-12895
▁Symbol	-12896
▁Israeli	-12897
▁explicit	-12898
estr	-12899
▁tar	-12900
chnung	-12901
▁Bars	-12902
▁verdient	-12903
▁educational	-12904
▁copyright	-12905
39	-12906
▁documentation	-12907
pet	-12908
ounter	-12909
▁Wei	-12910
▁raw	-12911
▁Dipl	-12912
▁IV	-12913
ación	-12914
ignet	-12915
▁Mangel	-12916
usehen	-12917
▁Ausmaß	-12918
▁king	-12919
ughter	-12920
▁SMEs	-12921
▁Sollten	-12922
▁Equ	-12923
▁jegliche	-12924
▁behalten	-12925
▁flag	-12926
▁definitely	-12927
holm	-12928
▁View	-12929
▁awarded	-12930
▁foundation	-12931
▁Insbesondere	-12932
ни	-12933
teilungen	-12934
herr	-12935
▁Anmer	-12936
▁frame	-12937
ulpt	-12938
AF	-12939
▁streng	-12940
▁recorded	-12941
wege	-12942
1-	-12943
▁neun	-12944
▁Gepäck	-12945
▁Soviet	-12946
▁Palästinens	-12947
▁traditionelle	-12948
hips	-12949
▁cycle	-12950
▁Mobilität	-12951
ifizieren	-12952
▁Vorgehen	-12953
kter	-12954
▁Betr	-12955
▁usual	-12956
▁dürfte	-12957
▁Argument	-12958
iences	-12959
▁citizen	-12960
▁Identität	-12961
▁sud	-12962
ameters	-12963
▁tickets	-12964
▁constitution	-12965
pap	-12966
ups	-12967
▁Sollte	-12968
▁ferner	-12969
▁overcome	-12970
▁committees	-12971
▁Shop	-12972
▁verbind	-12973
▁minorities	-12974
athol	-12975
▁Zert	-12976
▁thr	-12977
klusive	-12978
▁ER	-12979
▁termin	-12980
▁WC	-12981
▁Page	-12982
techn	-12983
▁palästinens	-12984
▁Ferr	-12985
immungs	-12986
▁einfacher	-12987
zent	-12988
▁Gefahren	-12989
▁minister	-12990
▁50%	-12991
schluß	-12992
▁assume	-12993
▁speaker	-12994
▁Kommunikations	-12995
▁Ext	-12996
gerufen	-12997
▁Mem	-12998
▁Reis	-12999
uchs	-13000
▁Milch	-13001
▁Eurozone	-13002
▁configuration	-13003
▁180	-13004
▁sen	-13005
ifest	-13006
hängen	-13007
▁Anschluss	-13008
▁MB	-13009
▁Description	-13010
▁Ten	-13011
▁confer	-13012
▁tackle	-13013
▁occasions	-13014
▁Alles	-13015
▁Child	-13016
▁behaviour	-13017
ammt	-13018
cepts	-13019
▁Indian	-13020
bekämpfung	-13021
▁eingere	-13022
▁übrigens	-13023
▁passenger	-13024
▁immigrants	-13025
Strategie	-13026
▁Verbreitung	-13027
▁credibility	-13028
liegt	-13029
urlaub	-13030
▁poten	-13031
usse	-13032
sieht	-13033
▁stronger	-13034
▁UR	-13035
▁Bord	-13036
ziele	-13037
▁films	-13038
▁Wohlstand	-13039
▁Amendments	-13040
▁crimes	-13041
▁Liter	-13042
▁ersetzt	-13043
▁manufacturer	-13044
ju	-13045
Wir	-13046
OP	-13047
▁Moz	-13048
rates	-13049
▁Provinz	-13050
▁Rezeption	-13051
▁partly	-13052
▁Preisen	-13053
▁autonom	-13054
▁erfolgreiche	-13055
▁desired	-13056
▁britische	-13057
▁profile	-13058
▁spezifischen	-13059
▁arm	-13060
▁beruht	-13061
▁imposed	-13062
▁scheme	-13063
▁gewährt	-13064
▁Besorgnis	-13065
▁Marktes	-13066
▁compatible	-13067
▁rechtlichen	-13068
uous	-13069
▁verbinden	-13070
itra	-13071
▁proven	-13072
▁beliebt	-13073
▁Opposition	-13074
▁respected	-13075
▁grundsätzlich	-13076
▁forg	-13077
▁woman	-13078
▁letzter	-13079
▁virtual	-13080
Lin	-13081
emble	-13082
▁routes	-13083
beziehungen	-13084
trans	-13085
▁Anre	-13086
systeme	-13087
freien	-13088
Intern	-13089
▁israel	-13090
kommunik	-13091
schaffung	-13092
bach	-13093
▁fem	-13094
▁centuries	-13095
eing	-13096
▁replace	-13097
▁verurteilt	-13098
demark	-13099
technolog	-13100
▁Plug	-13101
▁sugar	-13102
▁oblige	-13103
▁Browser	-13104
▁trafficking	-13105
chst	-13106
▁seas	-13107
betrieb	-13108
▁gespielt	-13109
▁competent	-13110
▁Beam	-13111
▁brut	-13112
▁facts	-13113
etheless	-13114
▁Northern	-13115
▁Untersuchungen	-13116
erin	-13117
▁boost	-13118
▁Project	-13119
▁installieren	-13120
▁entscheidende	-13121
▁plen	-13122
▁nights	-13123
▁Schrift	-13124
▁transactions	-13125
ubl	-13126
vertrag	-13127
▁Laut	-13128
▁enjoyed	-13129
▁1992	-13130
▁prest	-13131
▁vorzu	-13132
▁Legisl	-13133
▁organisieren	-13134
▁ice	-13135
▁ruhig	-13136
▁reduzieren	-13137
▁vorhandenen	-13138
▁beschäftigen	-13139
▁Ib	-13140
ockt	-13141
▁Gaza	-13142
▁Vict	-13143
▁nunmehr	-13144
lications	-13145
hrten	-13146
▁Wart	-13147
▁Zielen	-13148
▁verstärken	-13149
▁Vize	-13150
▁Respekt	-13151
▁correctly	-13152
▁berechtigt	-13153
▁Komponenten	-13154
waffen	-13155
▁Water	-13156
▁arrived	-13157
▁possibly	-13158
▁transatlant	-13159
▁Luc	-13160
▁gegebenen	-13161
▁diagn	-13162
ivalent	-13163
▁Defiz	-13164
▁Serie	-13165
▁jenen	-13166
▁Puerto	-13167
▁containing	-13168
▁Var	-13169
gelöst	-13170
uminium	-13171
▁gallery	-13172
▁Vorstellung	-13173
▁rul	-13174
▁vorstellen	-13175
34	-13176
▁forum	-13177
▁attract	-13178
▁2006,	-13179
▁sending	-13180
▁appointed	-13181
▁gestaltet	-13182
pg	-13183
rep	-13184
▁Yes	-13185
▁Hungary	-13186
▁channel	-13187
▁luxurious	-13188
▁mac	-13189
▁Alexander	-13190
▁Verlust	-13191
▁Automat	-13192
▁Städten	-13193
▁Mrd	-13194
▁ped	-13195
▁Oder	-13196
▁Bedien	-13197
▁professionals	-13198
▁IB	-13199
▁fehlt	-13200
▁Michel	-13201
▁conditioning	-13202
dauer	-13203
▁discre	-13204
▁Versand	-13205
▁weekend	-13206
▁declared	-13207
▁individuellen	-13208
▁Malta	-13209
▁Zwecke	-13210
ás	-13211
iese	-13212
örter	-13213
▁Following	-13214
▁einheitlichen	-13215
85	-13216
▁Within	-13217
▁Begr	-13218
Vert	-13219
wertet	-13220
ündete	-13221
▁Neue	-13222
▁milk	-13223
▁adults	-13224
▁Ku	-13225
▁Educ	-13226
▁exit	-13227
▁Kapitel	-13228
▁Bang	-13229
▁lots	-13230
ultural	-13231
▁Terra	-13232
viertel	-13233
▁Autobahn	-13234
town	-13235
▁Kriegs	-13236
▁Werkzeug	-13237
▁Zür	-13238
▁Chair	-13239
▁Detail	-13240
▁Belgium	-13241
▁manager	-13242
▁Kongress	-13243
▁slightly	-13244
▁außerordentlich	-13245
▁wechs	-13246
zneimit	-13247
▁alcohol	-13248
▁Salzburg	-13249
▁adopting	-13250
▁eastern	-13251
Ad	-13252
Form	-13253
▁labe	-13254
▁Hamas	-13255
marquis	-13256
▁Fernseh	-13257
▁satisfied	-13258
LT	-13259
▁erläut	-13260
ieller	-13261
▁functioning	-13262
▁Ill	-13263
▁James	-13264
Art	-13265
ained	-13266
▁Ker	-13267
▁certific	-13268
uben	-13269
Mod	-13270
iki	-13271
ulich	-13272
iegelt	-13273
▁kamen	-13274
gess	-13275
üne	-13276
ede	-13277
▁shares	-13278
▁destruction	-13279
zneimittel	-13280
▁Clear	-13281
▁subsidiarity	-13282
▁großzüg	-13283
▁maritime	-13284
agg	-13285
▁Bedrohung	-13286
llo	-13287
athem	-13288
▁Spaß	-13289
nex	-13290
▁Hen	-13291
ernel	-13292
▁Email	-13293
▁judicial	-13294
▁verkaufen	-13295
▁magnificent	-13296
oche	-13297
▁2006.	-13298
▁flood	-13299
▁Donner	-13300
▁discip	-13301
▁Freunden	-13302
▁distributed	-13303
Con	-13304
▁Bere	-13305
▁Single	-13306
▁Optionen	-13307
▁Kaffee	-13308
▁schlägt	-13309
ardo	-13310
▁elsewhere	-13311
▁aussprechen	-13312
▁Who	-13313
useums	-13314
ancing	-13315
anke	-13316
▁22.	-13317
gested	-13318
▁luxuri	-13319
durch	-13320
▁miles	-13321
▁courts	-13322
▁theoret	-13323
▁Investment	-13324
▁angegebenen	-13325
▁Bemerkung	-13326
▁erhebliche	-13327
▁identified	-13328
lings	-13329
zonen	-13330
▁arab	-13331
▁died	-13332
▁horizont	-13333
▁Mitarbeitern	-13334
▁verbesser	-13335
▁suppliers	-13336
▁ursprünglich	-13337
ökonom	-13338
▁Thurs	-13339
▁Dal	-13340
schefs	-13341
▁Stimmen	-13342
▁Rechtsstaat	-13343
▁Apple	-13344
▁Tsch	-13345
▁rental	-13346
▁sit	-13347
bleme	-13348
yside	-13349
▁Desk	-13350
▁Reduz	-13351
▁Sektoren	-13352
orie	-13353
▁Kirk	-13354
▁vari	-13355
ographic	-13356
▁Politiken	-13357
idet	-13358
▁plays	-13359
lehnung	-13360
▁Verlauf	-13361
▁eventually	-13362
▁unverzüglich	-13363
▁Pot	-13364
NA	-13365
▁Kais	-13366
▁Betrag	-13367
▁klaren	-13368
▁licens	-13369
▁unfair	-13370
▁stehenden	-13371
prene	-13372
▁fuer	-13373
▁bright	-13374
ingly	-13375
wirkt	-13376
▁surf	-13377
uster	-13378
IX	-13379
▁jener	-13380
▁verwirk	-13381
▁Abkommens	-13382
▁Rechnungshof	-13383
▁rechtzeit	-13384
▁encouraging	-13385
▁inj	-13386
NS	-13387
▁DE	-13388
▁BMW	-13389
▁Kopenhagen	-13390
7)	-13391
wählen	-13392
comp	-13393
icing	-13394
▁Vern	-13395
▁bekräft	-13396
▁erhielt	-13397
Des	-13398
▁Werke	-13399
▁taxation	-13400
unications	-13401
▁GB	-13402
eta	-13403
General	-13404
zut	-13405
▁division	-13406
zentren	-13407
▁erfolgreichen	-13408
▁constitutional	-13409
▁Vene	-13410
}})	-13411
▁Structural	-13412
ührt	-13413
▁Erzeugnisse	-13414
▁Auge	-13415
▁Güter	-13416
▁formed	-13417
▁amerikanische	-13418
▁Schulen	-13419
▁addresses	-13420
obel	-13421
▁Sche	-13422
▁consent	-13423
imp	-13424
▁Urheber	-13425
▁proposes	-13426
▁preparing	-13427
▁considering	-13428
CP	-13429
▁rising	-13430
▁sensible	-13431
▁wiederholen	-13432
irls	-13433
▁700	-13434
▁deficit	-13435
▁Betracht	-13436
▁angewand	-13437
acks	-13438
kehrt	-13439
informationen	-13440
▁index	-13441
ziellen	-13442
▁hundred	-13443
▁Fa	-13444
▁dign	-13445
opolit	-13446
regeln	-13447
▁Wetter	-13448
▁providers	-13449
▁globalisation	-13450
jan	-13451
▁suit	-13452
▁Krankheit	-13453
▁Event	-13454
▁Balkans	-13455
▁ensures	-13456
.-	-13457
▁nutz	-13458
dro	-13459
▁Li	-13460
werken	-13461
▁suspend	-13462
▁resolved	-13463
▁eingereicht	-13464
▁USS	-13465
ented	-13466
▁exports	-13467
▁entscheidender	-13468
32	-13469
▁deposit	-13470
▁äußern	-13471
▁Zusätzlich	-13472
▁semin	-13473
▁2000,	-13474
▁Konsult	-13475
▁Az	-13476
▁10%	-13477
▁stil	-13478
gänger	-13479
steigen	-13480
▁army	-13481
▁toba	-13482
dienste	-13483
▁langsam	-13484
▁Genehmigung	-13485
▁Bereitstellung	-13486
otic	-13487
▁Bug	-13488
▁nahm	-13489
▁Works	-13490
▁component	-13491
▁Roll	-13492
istent	-13493
▁Gericht	-13494
▁beigetragen	-13495
▁Tochter	-13496
mir	-13497
▁Konstru	-13498
▁Exchange	-13499
▁Women	-13500
▁vermitteln	-13501
▁vieles	-13502
▁vulnerable	-13503
itim	-13504
▁McC	-13505
▁amen	-13506
▁Valley	-13507
▁plenary	-13508
Star	-13509
▁AKP	-13510
▁Staff	-13511
▁FA	-13512
▁HTML	-13513
▁Nachricht	-13514
▁Mobile	-13515
▁Thirdly	-13516
▁Parkplatz	-13517
▁Programmen	-13518
▁Plane	-13519
behandlung	-13520
▁substance	-13521
▁extraordinary	-13522
erts	-13523
▁1993	-13524
▁Belast	-13525
▁Männern	-13526
▁Without	-13527
▁Sunday	-13528
programme	-13529
▁VAT	-13530
▁actively	-13531
▁roads	-13532
▁Kontrollen	-13533
▁vorbereitet	-13534
▁honest	-13535
▁warn	-13536
▁zurückzu	-13537
stes	-13538
economic	-13539
▁enhance	-13540
▁Client	-13541
▁strategischen	-13542
▁SAP	-13543
▁afr	-13544
▁AM	-13545
▁Satur	-13546
▁thousand	-13547
▁Blue	-13548
▁Anstieg	-13549
▁everyday	-13550
gener	-13551
▁shock	-13552
stellungs	-13553
ра	-13554
▁appeared	-13555
▁bestimmter	-13556
inks	-13557
▁vary	-13558
▁großem	-13559
anw	-13560
▁auseinander	-13561
▁empfangen	-13562
▁unw	-13563
▁Satz	-13564
bereiten	-13565
▁Gegenstand	-13566
▁lokale	-13567
rock	-13568
▁jung	-13569
▁Assembly	-13570
▁supplies	-13571
OC	-13572
site	-13573
▁japan	-13574
▁updates	-13575
▁Lieferung	-13576
▁Thail	-13577
▁decisive	-13578
▁с	-13579
cho	-13580
▁beteiligen	-13581
▁intelligent	-13582
ommerce	-13583
▁inclusion	-13584
▁Kab	-13585
▁assure	-13586
▁Wohnung	-13587
▁Philosoph	-13588
▁Among	-13589
bildungs	-13590
lösungen	-13591
▁connect	-13592
rown	-13593
igert	-13594
▁spoke	-13595
▁drinks	-13596
For	-13597
▁Beweg	-13598
▁euros	-13599
▁Newsletter	-13600
95	-13601
▁Job	-13602
▁Traum	-13603
▁Charta	-13604
▁bislang	-13605
▁Vel	-13606
uggage	-13607
▁domain	-13608
▁theory	-13609
▁verantwortungs	-13610
▁Zuge	-13611
▁Potenzial	-13612
▁eingehalten	-13613
▁stren	-13614
raf	-13615
▁tobacco	-13616
äg	-13617
▁Sudan	-13618
▁lessons	-13619
▁Äg	-13620
gehens	-13621
▁partial	-13622
▁excessive	-13623
▁tea	-13624
▁western	-13625
▁concepts	-13626
▁Sozialdem	-13627
▁authentic	-13628
menade	-13629
▁wunderschönen	-13630
▁Pen	-13631
▁banking	-13632
▁31.	-13633
ademy	-13634
▁Fundamental	-13635
aue	-13636
▁Rule	-13637
▁absence	-13638
▁emotion	-13639
aga	-13640
▁Staates	-13641
▁generated	-13642
▁beobachten	-13643
▁Glaubwürdigkeit	-13644
ui	-13645
▁Leon	-13646
▁stolz	-13647
▁musical	-13648
▁Sicherung	-13649
▁catch	-13650
▁deleg	-13651
▁abziel	-13652
▁Charles	-13653
UNG	-13654
▁aktivieren	-13655
▁konfront	-13656
ín	-13657
Unter	-13658
▁functional	-13659
orry	-13660
▁erzeugt	-13661
▁französische	-13662
▁gekenn	-13663
▁Fußball	-13664
▁university	-13665
▁65	-13666
▁Dolom	-13667
▁Ansichten	-13668
▁Erstellung	-13669
läuft	-13670
ässig	-13671
▁Treat	-13672
▁Zusch	-13673
▁genannte	-13674
▁unvergess	-13675
▁Sav	-13676
▁decre	-13677
▁anwesend	-13678
▁Amt	-13679
▁Ram	-13680
▁wrote	-13681
▁applying	-13682
▁einzigartigen	-13683
▁Rechtsgrundlage	-13684
▁Mini	-13685
▁duties	-13686
▁liefert	-13687
▁offiziellen	-13688
termin	-13689
▁impose	-13690
▁artistic	-13691
▁verboten	-13692
▁integriert	-13693
’.	-13694
afrika	-13695
▁handle	-13696
▁Einkommen	-13697
edy	-13698
▁solely	-13699
▁kleines	-13700
▁toile	-13701
▁bedauer	-13702
dorf	-13703
▁Rena	-13704
räumen	-13705
▁greatly	-13706
▁übersch	-13707
3)	-13708
▁Nachhalt	-13709
endo	-13710
▁proposing	-13711
ville	-13712
▁subjects	-13713
▁Empfang	-13714
▁Konkurr	-13715
▁20%	-13716
▁preced	-13717
▁packaging	-13718
▁Lok	-13719
ieden	-13720
deckt	-13721
▁relie	-13722
▁Thursday	-13723
strafe	-13724
▁Schluß	-13725
▁solches	-13726
tech	-13727
▁shipping	-13728
▁verbindet	-13729
▁elektronischen	-13730
▁carrying	-13731
▁Konsequenzen	-13732
▁fourth	-13733
▁savings	-13734
▁Gerät	-13735
▁leichter	-13736
▁Übersetz	-13737
▁countryside	-13738
▁gained	-13739
▁narrow	-13740
▁Nam	-13741
parte	-13742
▁housing	-13743
▁verkauft	-13744
mpt	-13745
▁susp	-13746
gebiete	-13747
▁Objekt	-13748
▁topics	-13749
▁ing	-13750
▁Francis	-13751
glichkeit	-13752
▁gearbeitet	-13753
▁roll	-13754
▁compos	-13755
▁villages	-13756
▁weitgehend	-13757
▁ausgerichtet	-13758
erie	-13759
▁30.	-13760
▁ships	-13761
ultane	-13762
▁Besides	-13763
▁legitimate	-13764
leiter	-13765
▁unforget	-13766
▁nevertheless	-13767
▁investieren	-13768
▁Schle	-13769
▁Stutt	-13770
▁vorrang	-13771
▁schicken	-13772
▁Pil	-13773
▁komme	-13774
▁pursue	-13775
▁description	-13776
▁suggestions	-13777
▁Prom	-13778
▁Alpen	-13779
▁Host	-13780
▁Darum	-13781
▁Geträn	-13782
▁Holiday	-13783
▁finish	-13784
ianz	-13785
▁2005,	-13786
▁verwe	-13787
▁Cho	-13788
▁Geschwindigkeit	-13789
ktors	-13790
▁beantworten	-13791
▁liked	-13792
▁PS	-13793
ipfel	-13794
▁Lobby	-13795
▁teams	-13796
endar	-13797
▁Look	-13798
▁Anlass	-13799
▁ökonom	-13800
▁regarded	-13801
▁desk	-13802
▁Treib	-13803
IK	-13804
äusern	-13805
▁Castle	-13806
▁inklusive	-13807
▁voluntary	-13808
▁hyp	-13809
▁weist	-13810
prozess	-13811
▁7,	-13812
▁Schon	-13813
▁Professor	-13814
▁betreffend	-13815
▁comparison	-13816
▁geziel	-13817
:5	-13818
▁lists	-13819
▁wiederholt	-13820
▁bereitgestellt	-13821
▁Gang	-13822
wahlen	-13823
▁Sterne	-13824
▁abuse	-13825
athedral	-13826
▁director	-13827
ausschau	-13828
wiegend	-13829
▁Freitag	-13830
▁herrscht	-13831
▁anbel	-13832
▁Pos	-13833
▁Sohn	-13834
▁hart	-13835
▁sozialer	-13836
▁receiving	-13837
▁acknowledge	-13838
▁philosophy	-13839
▁Guests	-13840
urteilung	-13841
werben	-13842
▁suggested	-13843
ROM	-13844
▁55	-13845
itale	-13846
▁Aben	-13847
▁lift	-13848
▁departure	-13849
utation	-13850
▁stammen	-13851
▁mittleren	-13852
▁defect	-13853
▁voranz	-13854
▁Sind	-13855
▁supplier	-13856
▁Hungarian	-13857
ixel	-13858
aders	-13859
▁Schüler	-13860
▁inmitten	-13861
figuration	-13862
▁Überlegungen	-13863
▁Tip	-13864
▁Bulgarien	-13865
▁zuständig	-13866
▁Riv	-13867
liehen	-13868
▁Still	-13869
▁mussten	-13870
▁delicious	-13871
▁Übergangs	-13872
▁Cup	-13873
▁Rab	-13874
▁Golden	-13875
▁Travel	-13876
▁Quellen	-13877
hältnisse	-13878
▁genügend	-13879
▁shap	-13880
▁entwickelte	-13881
▁Vide	-13882
▁Kabel	-13883
▁reinfor	-13884
▁Hardware	-13885
▁lit	-13886
ami	-13887
▁Festpl	-13888
▁ausgeb	-13889
▁anbelangt	-13890
▁Made	-13891
amo	-13892
▁panoram	-13893
▁Edit	-13894
▁Einstellungen	-13895
▁Flugzeug	-13896
▁difficulty	-13897
▁interpretation	-13898
▁invited	-13899
▁Kroatien	-13900
▁erz	-13901
▁hinweg	-13902
ärkt	-13903
▁Image	-13904
systems	-13905
▁Addition	-13906
oles	-13907
▁grav	-13908
asbourg	-13909
oration	-13910
▁reservations	-13911
▁machte	-13912
▁Gi	-13913
▁Next	-13914
▁della	-13915
▁Orient	-13916
▁uniform	-13917
cision	-13918
▁Monday	-13919
▁erlebt	-13920
dh	-13921
▁doors	-13922
▁insist	-13923
▁durchschnitt	-13924
▁Gewährleistung	-13925
▁root	-13926
▁attempts	-13927
▁Korruption	-13928
folgung	-13929
▁Agriculture	-13930
iets	-13931
▁Having	-13932
Software	-13933
▁Brasilien	-13934
▁Beschlüsse	-13935
33	-13936
Br	-13937
lager	-13938
▁Verzö	-13939
▁resource	-13940
▁überprüft	-13941
etic	-13942
orse	-13943
achts	-13944
ipher	-13945
ruppe	-13946
▁song	-13947
ounted	-13948
▁Eigentum	-13949
iza	-13950
▁wohnen	-13951
▁periods	-13952
▁specified	-13953
160	-13954
▁ähnlich	-13955
▁verteidigen	-13956
üst	-13957
▁fan	-13958
▁sounds	-13959
▁Mitgliedschaft	-13960
▁Sar	-13961
agements	-13962
▁tend	-13963
▁prosperity	-13964
He	-13965
Rooms	-13966
▁colours	-13967
▁Schönheit	-13968
▁satisfaction	-13969
▁edge	-13970
▁erstmals	-13971
zenten	-13972
effizienz	-13973
▁Reduzierung	-13974
▁Hat	-13975
▁Mur	-13976
cession	-13977
▁ACP	-13978
usstsein	-13979
▁Content	-13980
▁forests	-13981
▁Trotzdem	-13982
▁iPhone	-13983
▁reduziert	-13984
▁productivity	-13985
idad	-13986
zung	-13987
scale	-13988
▁Ägyp	-13989
niveau	-13990
▁Positionen	-13991
lined	-13992
▁murder	-13993
▁Budgets	-13994
▁deutsch	-13995
▁langfristige	-13996
▁Wäl	-13997
▁Mov	-13998
▁scre	-13999
ierender	-14000
▁Kollegin	-14001
▁führende	-14002
tty	-14003
▁nörd	-14004
rechter	-14005
geschichte	-14006
orer	-14007
▁Frie	-14008
▁Leiden	-14009
▁complement	-14010
onic	-14011
▁Mission	-14012
▁stellte	-14013
nummer	-14014
weilen	-14015
▁batter	-14016
▁breiten	-14017
▁trademark	-14018
Im	-14019
▁EL	-14020
▁Bege	-14021
▁allzu	-14022
▁Sonntag	-14023
▁federal	-14024
andt	-14025
▁realistic	-14026
▁einzigart	-14027
laim	-14028
▁Cub	-14029
▁Entfern	-14030
▁standing	-14031
ni	-14032
▁roof	-14033
▁Attra	-14034
▁module	-14035
▁EZB	-14036
▁Übrigen	-14037
▁disabled	-14038
▁arguments	-14039
hört	-14040
68	-14041
▁kreat	-14042
▁letztendlich	-14043
▁tast	-14044
▁Ankunft	-14045
▁welcoming	-14046
▁scene	-14047
▁Wählen	-14048
▁reaction	-14049
▁revision	-14050
enth	-14051
▁burn	-14052
▁gefallen	-14053
▁EM	-14054
ulse	-14055
▁25.	-14056
alerie	-14057
ranche	-14058
sbuffet	-14059
▁Herbst	-14060
EX	-14061
LAF	-14062
▁info	-14063
▁Übernachtung	-14064
▁Mountain	-14065
▁acting	-14066
sie	-14067
▁gehe	-14068
▁glück	-14069
iensten	-14070
ordnungen	-14071
▁Pfer	-14072
▁patient	-14073
▁destroyed	-14074
gart	-14075
anning	-14076
▁Space	-14077
▁Donnerstag	-14078
▁Metro	-14079
▁tritt	-14080
▁Common	-14081
▁Kulturen	-14082
▁Erfüllung	-14083
pat	-14084
▁bridge	-14085
▁behaupten	-14086
▁Consult	-14087
▁passion	-14088
▁enabling	-14089
Applause	-14090
lication	-14091
▁Gehminuten	-14092
▁Unternehmer	-14093
▁Meister	-14094
▁relative	-14095
▁unterscheiden	-14096
▁Beschwer	-14097
▁personen	-14098
▁sought	-14099
▁Quality	-14100
▁bekommt	-14101
▁Tennis	-14102
▁gelingt	-14103
▁Situated	-14104
▁Luxus	-14105
▁societies	-14106
▁leaves	-14107
▁Kontakte	-14108
Cl	-14109
▁Stoffe	-14110
weisungen	-14111
▁permitted	-14112
▁pas	-14113
▁Jung	-14114
chester	-14115
▁(4	-14116
eten	-14117
▁examine	-14118
▁Augenblick	-14119
▁Strasbourg	-14120
▁Gerechtigkeit	-14121
äßt	-14122
▁manche	-14123
▁neighb	-14124
▁Katastrophe	-14125
▁politically	-14126
▁angepasst	-14127
xy	-14128
arr	-14129
knüp	-14130
▁Mittag	-14131
▁imports	-14132
▁betreiben	-14133
▁manual	-14134
▁kilomet	-14135
▁bla	-14136
werts	-14137
▁Verg	-14138
grammen	-14139
▁Gerade	-14140
▁Wissens	-14141
▁killed	-14142
BC	-14143
▁optimale	-14144
▁aktive	-14145
rog	-14146
derung	-14147
▁Eingang	-14148
▁ersetzen	-14149
laut	-14150
▁paint	-14151
▁diesel	-14152
▁religion	-14153
▁Arzneimittel	-14154
▁confirmation	-14155
▁ine	-14156
▁upper	-14157
▁overview	-14158
▁Verarbeitung	-14159
▁Entlastung	-14160
ätzt	-14161
▁cul	-14162
politische	-14163
▁unforgettable	-14164
▁elector	-14165
▁cooperate	-14166
oul	-14167
utet	-14168
▁tennis	-14169
▁Verletzung	-14170
▁zukünftigen	-14171
gner	-14172
▁paying	-14173
▁freundlich	-14174
rein	-14175
▁poly	-14176
▁manip	-14177
▁config	-14178
▁filter	-14179
▁festival	-14180
▁Bett	-14181
▁einzusetzen	-14182
▁twenty	-14183
▁empfohlen	-14184
▁Nein	-14185
drückt	-14186
▁constitute	-14187
▁Hom	-14188
▁obliged	-14189
99	-14190
▁Based	-14191
▁Islands	-14192
▁Atlantic	-14193
▁wireless	-14194
▁vorzulegen	-14195
ila	-14196
▁Poly	-14197
rim	-14198
▁hilf	-14199
▁ports	-14200
▁Wähler	-14201
▁Vorhaben	-14202
ESCO	-14203
hlung	-14204
zepte	-14205
▁begeg	-14206
▁municip	-14207
▁representation	-14208
emit	-14209
▁refers	-14210
poration	-14211
▁hierbei	-14212
ianischen	-14213
lers	-14214
zesse	-14215
▁Pfe	-14216
kultur	-14217
▁Klaus	-14218
ränkung	-14219
▁directory	-14220
▁bedeutende	-14221
▁anschließend	-14222
▁ju	-14223
▁schwe	-14224
▁konfrontiert	-14225
▁horse	-14226
▁referendum	-14227
night	-14228
▁shar	-14229
▁Alger	-14230
Beifall	-14231
▁Sn	-14232
estra	-14233
▁welcomed	-14234
ureich	-14235
▁Saison	-14236
▁farming	-14237
▁geraten	-14238
▁remained	-14239
▁hill	-14240
ricted	-14241
▁Lounge	-14242
▁beendet	-14243
▁radical	-14244
▁LateRooms	-14245
▁Islamic	-14246
▁versichern	-14247
▁Full	-14248
▁compe	-14249
▁Secretary	-14250
▁publication	-14251
▁verfügbaren	-14252
▁instructions	-14253
▁football	-14254
▁retail	-14255
▁Millenn	-14256
▁gründ	-14257
▁Klasse	-14258
▁skiing	-14259
▁erwähnen	-14260
▁significance	-14261
▁tranqu	-14262
▁umfassend	-14263
▁Finland	-14264
▁Schiffe	-14265
▁ou	-14266
made	-14267
▁Umsatz	-14268
▁warrant	-14269
▁Domin	-14270
oubtedly	-14271
▁Federation	-14272
wirtschaften	-14273
▁Game	-14274
▁Prozesse	-14275
▁könnt	-14276
▁Textil	-14277
▁renowned	-14278
▁Americans	-14279
Qu	-14280
Pres	-14281
▁homes	-14282
▁Widerstand	-14283
▁Vizepräsident	-14284
CE	-14285
▁unn	-14286
Server	-14287
friendly	-14288
▁characters	-14289
advant	-14290
ügigkeit	-14291
▁dependent	-14292
erb	-14293
▁Präsent	-14294
▁einbezogen	-14295
▁kontaktieren	-14296
ötz	-14297
unge	-14298
▁gestattet	-14299
▁entreprene	-14300
▁Fahrt	-14301
▁Marke	-14302
▁Stockholm	-14303
▁Vorgehens	-14304
▁defe	-14305
▁Latein	-14306
▁negotiating	-14307
▁voran	-14308
mbuds	-14309
▁Spitzen	-14310
auschen	-14311
▁Plattform	-14312
▁Praktiken	-14313
▁ansprechen	-14314
▁Veränderung	-14315
übt	-14316
▁Rio	-14317
▁none	-14318
▁blind	-14319
▁getragen	-14320
▁verteilt	-14321
illed	-14322
uverän	-14323
▁videos	-14324
▁complicated	-14325
▁surely	-14326
▁Schwimm	-14327
ко	-14328
cas	-14329
▁infr	-14330
▁toward	-14331
▁justified	-14332
pfung	-14333
▁trips	-14334
Über	-14335
▁ergänzen	-14336
▁appearance	-14337
▁continuous	-14338
▁cuts	-14339
▁Alltag	-14340
▁excurs	-14341
▁hardly	-14342
▁sharing	-14343
▁Erlebnis	-14344
▁Planeten	-14345
▁contributed	-14346
spartei	-14347
▁attrib	-14348
▁größeres	-14349
▁suffered	-14350
▁konzentriert	-14351
▁Erm	-14352
▁obser	-14353
▁surve	-14354
▁legally	-14355
win	-14356
annter	-14357
▁Thailand	-14358
instrument	-14359
cul	-14360
▁looked	-14361
▁Reserve	-14362
▁Tourism	-14363
▁aggress	-14364
▁Rückkehr	-14365
iziente	-14366
ubs	-14367
äne	-14368
▁Playa	-14369
outs	-14370
▁Catal	-14371
ро	-14372
▁Plus	-14373
▁lunch	-14374
▁specialist	-14375
▁Spann	-14376
▁preventing	-14377
▁Gleichstellung	-14378
Ben	-14379
pay	-14380
baus	-14381
▁fans	-14382
▁enabled	-14383
▁künftige	-14384
Is	-14385
mot	-14386
▁begrenzt	-14387
▁harmonisation	-14388
asi	-14389
ski	-14390
▁Ergän	-14391
▁cleaning	-14392
65	-14393
▁rück	-14394
bereichen	-14395
rome	-14396
kapaz	-14397
ulous	-14398
▁Sachen	-14399
▁ausgehen	-14400
▁freedoms	-14401
▁beeinträcht	-14402
▁offene	-14403
▁Genießen	-14404
▁deswegen	-14405
grenze	-14406
weich	-14407
▁Asian	-14408
sprachen	-14409
zusammen	-14410
▁mitteilen	-14411
▁unterstreichen	-14412
▁Grünen	-14413
▁supervision	-14414
vi	-14415
greg	-14416
▁tables	-14417
tung	-14418
▁Vort	-14419
▁ende	-14420
▁hast	-14421
ichtung	-14422
▁erstre	-14423
▁Fahrzeuge	-14424
cu	-14425
▁langfristig	-14426
▁geprägt	-14427
▁Ausflüge	-14428
▁gebrauch	-14429
▁Ly	-14430
drich	-14431
schläge	-14432
▁illegalen	-14433
▁herum	-14434
▁Distr	-14435
▁Existenz	-14436
anne	-14437
▁Fein	-14438
▁Family	-14439
▁bisherigen	-14440
▁Situationen	-14441
stal	-14442
▁Place	-14443
▁Belgien	-14444
▁mi	-14445
fernen	-14446
▁clubs	-14447
▁Betten	-14448
▁Nachbarn	-14449
▁disadvant	-14450
▁Ruf	-14451
▁Vorder	-14452
istischer	-14453
▁Australia	-14454
▁unterzeichnet	-14455
6)	-14456
abet	-14457
immers	-14458
▁movie	-14459
öffnung	-14460
▁Weiteren	-14461
▁recognized	-14462
ungssystem	-14463
▁amenities	-14464
auspiel	-14465
▁Auditors	-14466
zuschließen	-14467
▁carr	-14468
▁vollen	-14469
▁Tätigkeiten	-14470
▁Dres	-14471
▁Zürich	-14472
▁allocated	-14473
▁unzureich	-14474
▁Education	-14475
▁Wed	-14476
▁Porto	-14477
▁hospitality	-14478
▁asp	-14479
▁Depart	-14480
Pal	-14481
▁Wal	-14482
ammelt	-14483
cribe	-14484
▁Urlaubs	-14485
▁barriers	-14486
▁teile	-14487
▁Ebenen	-14488
▁experim	-14489
▁everybody	-14490
▁simultane	-14491
▁lieber	-14492
irs	-14493
▁welcomes	-14494
technologie	-14495
▁Widerspruch	-14496
Datei	-14497
recher	-14498
▁Perspektive	-14499
ärten	-14500
eschäd	-14501
spartner	-14502
▁Bevölkerungs	-14503
▁absor	-14504
▁Passwort	-14505
▁Funktions	-14506
▁abstimmen	-14507
▁movements	-14508
▁herunterladen	-14509
▁ang	-14510
▁Korre	-14511
emark	-14512
seite	-14513
zahlen	-14514
rifft	-14515
mitglieder	-14516
▁spezifische	-14517
▁vorgesehenen	-14518
▁forthcoming	-14519
▁unterliegen	-14520
▁eat	-14521
llers	-14522
▁Flüchtlinge	-14523
burgh	-14524
garten	-14525
▁pharm	-14526
▁firmly	-14527
▁Medizin	-14528
▁directed	-14529
uum	-14530
open	-14531
▁Emb	-14532
▁ergibt	-14533
van	-14534
▁wellness	-14535
▁Por	-14536
▁cells	-14537
▁Gefäng	-14538
▁finanziert	-14539
▁zukünftige	-14540
▁ere	-14541
iversary	-14542
ophistic	-14543
▁indicate	-14544
▁ordinary	-14545
verwaltung	-14546
▁vorgeschlagene	-14547
▁Venice	-14548
▁MA	-14549
ypen	-14550
▁Finanzkrise	-14551
▁Armee	-14552
▁enterprise	-14553
▁showed	-14554
▁realise	-14555
▁Ablehnung	-14556
▁Regierungschefs	-14557
usive	-14558
utral	-14559
▁parameters	-14560
▁Philipp	-14561
▁Finanzierungs	-14562
▁ECB	-14563
▁Oste	-14564
▁Geburt	-14565
▁beings	-14566
▁konkret	-14567
▁indirect	-14568
▁Freizügigkeit	-14569
▁Abhängigkeit	-14570
ords	-14571
▁Aufsichts	-14572
unruh	-14573
▁OR	-14574
▁hes	-14575
▁hervorgehoben	-14576
▁militärischen	-14577
▁Sob	-14578
▁breach	-14579
▁menschliche	-14580
isa	-14581
run	-14582
osing	-14583
ugang	-14584
▁studio	-14585
▁militärische	-14586
▁Metall	-14587
▁scheinen	-14588
herstellung	-14589
quer	-14590
betten	-14591
▁museums	-14592
▁generate	-14593
▁hochwertige	-14594
▁reflected	-14595
Me	-14596
ugt	-14597
luss	-14598
▁Mak	-14599
Daten	-14600
ifferenz	-14601
21	-14602
das	-14603
▁gap	-14604
▁explained	-14605
▁proceedings	-14606
COM	-14607
abs	-14608
/2000	-14609
▁juris	-14610
▁romantic	-14611
▁Vereinfach	-14612
:4	-14613
▁Should	-14614
▁schlagen	-14615
▁aufgebaut	-14616
▁anhand	-14617
▁Socialist	-14618
▁Does	-14619
▁Statt	-14620
smoking	-14621
▁Abfall	-14622
▁liquid	-14623
▁acknowled	-14624
▁programming	-14625
▁umfangreiche	-14626
▁Pläne	-14627
▁Lernen	-14628
▁rechten	-14629
▁angenehm	-14630
▁anhalten	-14631
bul	-14632
▁originally	-14633
▁Gross	-14634
▁UNESCO	-14635
▁behoben	-14636
▁Anwender	-14637
▁missing	-14638
conf	-14639
iale	-14640
▁Int	-14641
▁Stability	-14642
▁anzuzeigen	-14643
DI	-14644
▁Norm	-14645
▁islam	-14646
▁modules	-14647
▁Sammlung	-14648
▁internen	-14649
▁Willkommen	-14650
grunde	-14651
▁Gottes	-14652
▁angest	-14653
▁calm	-14654
▁saved	-14655
▁Kontinent	-14656
beschreibung	-14657
▁Nachhaltigkeit	-14658
▁Karl	-14659
nbsp	-14660
▁spons	-14661
▁Pension	-14662
▁combine	-14663
riebe	-14664
▁prime	-14665
bestimmungen	-14666
▁sustainability	-14667
▁genere	-14668
▁CR	-14669
▁Suiten	-14670
▁deserv	-14671
obody	-14672
▁eingegangen	-14673
▁präsentieren	-14674
▁hingegen	-14675
▁Kreis	-14676
▁remarks	-14677
▁therap	-14678
▁turning	-14679
▁Berliner	-14680
▁44	-14681
coun	-14682
▁Hot	-14683
▁recy	-14684
▁Haushaltsplan	-14685
utor	-14686
▁tree	-14687
outique	-14688
▁superior	-14689
▁functionality	-14690
▁NGOs	-14691
▁Muslim	-14692
eitigung	-14693
▁compact	-14694
nimmt	-14695
▁nord	-14696
▁internationally	-14697
▁(*	-14698
▁Stoff	-14699
▁Stuttgart	-14700
▁Fünf	-14701
▁inev	-14702
▁Schnell	-14703
▁obstacles	-14704
▁AND	-14705
▁errors	-14706
▁sogenannten	-14707
ijk	-14708
opes	-14709
plans	-14710
▁aufs	-14711
▁vorbei	-14712
▁accurate	-14713
▁staatliche	-14714
▁universities	-14715
jpg	-14716
▁classes	-14717
austausch	-14718
▁verdienen	-14719
ußt	-14720
▁2004,	-14721
▁imagine	-14722
▁sichere	-14723
▁Euch	-14724
▁Joseph	-14725
▁reflects	-14726
▁praktische	-14727
zell	-14728
▁Dor	-14729
▁gebeten	-14730
lan	-14731
▁Serbia	-14732
▁Märkten	-14733
▁bedeutend	-14734
▁introducing	-14735
komp	-14736
▁cancell	-14737
▁judge	-14738
▁korr	-14739
▁sequ	-14740
▁amazing	-14741
▁considerably	-14742
iang	-14743
usch	-14744
▁Conc	-14745
▁Sloven	-14746
▁hearing	-14747
▁Saturday	-14748
▁transmission	-14749
▁Entspannung	-14750
▁Ka	-14751
▁lö	-14752
▁Geneva	-14753
▁trends	-14754
▁Ken	-14755
iban	-14756
▁zivil	-14757
▁Mallorca	-14758
▁Abendessen	-14759
▁vereinbart	-14760
kampf	-14761
ESS	-14762
▁etabl	-14763
▁schäd	-14764
▁zugrunde	-14765
uage	-14766
▁Dikt	-14767
▁ride	-14768
▁Tabak	-14769
▁fascin	-14770
▁flexib	-14771
▁vessels	-14772
▁whereas	-14773
▁Artik	-14774
izieren	-14775
▁Histor	-14776
▁endorse	-14777
▁generations	-14778
ordan	-14779
▁angekünd	-14780
▁Resolution	-14781
▁knapp	-14782
▁boot	-14783
▁songs	-14784
achter	-14785
spolit	-14786
▁collected	-14787
[...]
